#include "magic_wand_model_data.h"

// We need to keep the data array aligned on some architectures.
#ifdef __has_attribute
#define HAVE_ATTRIBUTE(x) __has_attribute(x)
#else
#define HAVE_ATTRIBUTE(x) 0
#endif
#if HAVE_ATTRIBUTE(aligned) || (defined(__GNUC__) && !defined(__clang__))
#define DATA_ALIGN_ATTRIBUTE __attribute__((aligned(4)))
#else
#define DATA_ALIGN_ATTRIBUTE
#endif

const unsigned char g_magic_wand_model_data[] DATA_ALIGN_ATTRIBUTE = {
  // Paste the data of the char array in `src/model.cc` here
  0x08, 0x00, 0x00, 0x00, 0x54, 0x46, 0x4c, 0x33, 0x62, 0xff, 0xff, 0xff,
  0x03, 0x00, 0x00, 0x00, 0x10, 0x00, 0x00, 0x00, 0x24, 0x00, 0x00, 0x00,
  0x78, 0x00, 0x00, 0x00, 0x24, 0x00, 0x00, 0x00, 0x05, 0x00, 0x00, 0x00,
  0x78, 0x05, 0x00, 0x00, 0xb0, 0x04, 0x00, 0x00, 0xe0, 0x02, 0x00, 0x00,
  0x60, 0x02, 0x00, 0x00, 0x54, 0x01, 0x00, 0x00, 0x01, 0x00, 0x00, 0x00,
  0x78, 0x00, 0x00, 0x00, 0x13, 0x00, 0x00, 0x00, 0xd4, 0x2f, 0x00, 0x00,
  0xd0, 0x2f, 0x00, 0x00, 0xdc, 0x2e, 0x00, 0x00, 0x68, 0x2e, 0x00, 0x00,
  0xfc, 0x2d, 0x00, 0x00, 0xac, 0x11, 0x00, 0x00, 0x98, 0x10, 0x00, 0x00,
  0xbc, 0x0e, 0x00, 0x00, 0x60, 0x06, 0x00, 0x00, 0xfc, 0x05, 0x00, 0x00,
  0x78, 0x05, 0x00, 0x00, 0xa8, 0x2f, 0x00, 0x00, 0xa4, 0x2f, 0x00, 0x00,
  0xa0, 0x2f, 0x00, 0x00, 0x9c, 0x2f, 0x00, 0x00, 0x98, 0x2f, 0x00, 0x00,
  0x94, 0x2f, 0x00, 0x00, 0x90, 0x2f, 0x00, 0x00, 0x8c, 0x2f, 0x00, 0x00,
  0x0f, 0x00, 0x00, 0x00, 0x4d, 0x4c, 0x49, 0x52, 0x20, 0x43, 0x6f, 0x6e,
  0x76, 0x65, 0x72, 0x74, 0x65, 0x64, 0x2e, 0x00, 0x00, 0x00, 0x0e, 0x00,
  0x18, 0x00, 0x04, 0x00, 0x08, 0x00, 0x0c, 0x00, 0x10, 0x00, 0x14, 0x00,
  0x0e, 0x00, 0x00, 0x00, 0x14, 0x00, 0x00, 0x00, 0x5c, 0x00, 0x00, 0x00,
  0x60, 0x00, 0x00, 0x00, 0x64, 0x00, 0x00, 0x00, 0x84, 0x00, 0x00, 0x00,
  0x12, 0x00, 0x00, 0x00, 0x04, 0x2f, 0x00, 0x00, 0xa0, 0x2e, 0x00, 0x00,
  0xf8, 0x2d, 0x00, 0x00, 0x98, 0x2d, 0x00, 0x00, 0x30, 0x2d, 0x00, 0x00,
  0xdc, 0x10, 0x00, 0x00, 0xc0, 0x0f, 0x00, 0x00, 0xe4, 0x0d, 0x00, 0x00,
  0xa0, 0x05, 0x00, 0x00, 0x3c, 0x05, 0x00, 0x00, 0xb0, 0x04, 0x00, 0x00,
  0xe8, 0x03, 0x00, 0x00, 0x38, 0x03, 0x00, 0x00, 0xa4, 0x02, 0x00, 0x00,
  0x10, 0x02, 0x00, 0x00, 0x90, 0x01, 0x00, 0x00, 0xfc, 0x00, 0x00, 0x00,
  0x80, 0x00, 0x00, 0x00, 0x01, 0x00, 0x00, 0x00, 0x00, 0x00, 0x00, 0x00,
  0x01, 0x00, 0x00, 0x00, 0x11, 0x00, 0x00, 0x00, 0x08, 0x00, 0x00, 0x00,
  0x1c, 0x04, 0x00, 0x00, 0x58, 0x03, 0x00, 0x00, 0xc8, 0x02, 0x00, 0x00,
  0x24, 0x02, 0x00, 0x00, 0xac, 0x01, 0x00, 0x00, 0x10, 0x01, 0x00, 0x00,
  0x94, 0x00, 0x00, 0x00, 0x10, 0x00, 0x00, 0x00, 0x04, 0x00, 0x00, 0x00,
  0x6d, 0x61, 0x69, 0x6e, 0x00, 0x00, 0x00, 0x00, 0x8e, 0xff, 0xff, 0xff,
  0x00, 0x00, 0x00, 0x09, 0x04, 0x00, 0x00, 0x00, 0x1c, 0x00, 0x00, 0x00,
  0x10, 0x00, 0x00, 0x00, 0x04, 0x00, 0x00, 0x00, 0x4e, 0xd2, 0xff, 0xff,
  0x00, 0x00, 0x80, 0x3f, 0x01, 0x00, 0x00, 0x00, 0x11, 0x00, 0x00, 0x00,
  0x01, 0x00, 0x00, 0x00, 0x10, 0x00, 0x00, 0x00, 0xf6, 0xfb, 0xff, 0xff,
  0x00, 0x00, 0x00, 0x19, 0x01, 0x00, 0x00, 0x00, 0xce, 0xd1, 0xff, 0xff,
  0x10, 0x00, 0x00, 0x00, 0x12, 0x00, 0x00, 0x00, 0x14, 0x00, 0x00, 0x00,
  0x20, 0x00, 0x00, 0x00, 0x02, 0x00, 0x00, 0x00, 0x01, 0x00, 0x00, 0x00,
  0x03, 0x00, 0x00, 0x00, 0x08, 0x00, 0x00, 0x00, 0x49, 0x64, 0x65, 0x6e,
  0x74, 0x69, 0x74, 0x79, 0x00, 0x00, 0x00, 0x00, 0x08, 0xd2, 0xff, 0xff,
  0x00, 0x00, 0x0e, 0x00, 0x18, 0x00, 0x08, 0x00, 0x0c, 0x00, 0x10, 0x00,
  0x07, 0x00, 0x14, 0x00, 0x0e, 0x00, 0x00, 0x00, 0x00, 0x00, 0x00, 0x08,
  0x03, 0x00, 0x00, 0x00, 0x18, 0x00, 0x00, 0x00, 0x0c, 0x00, 0x00, 0x00,
  0x04, 0x00, 0x00, 0x00, 0xdc, 0xd1, 0xff, 0xff, 0x01, 0x00, 0x00, 0x00,
  0x10, 0x00, 0x00, 0x00, 0x03, 0x00, 0x00, 0x00, 0x0f, 0x00, 0x00, 0x00,
  0x05, 0x00, 0x00, 0x00, 0x02, 0x00, 0x00, 0x00, 0x46, 0xd2, 0xff, 0xff,
  0x10, 0x00, 0x00, 0x00, 0x11, 0x00, 0x00, 0x00, 0x14, 0x00, 0x00, 0x00,
  0x30, 0x00, 0x00, 0x00, 0x02, 0x00, 0x00, 0x00, 0x01, 0x00, 0x00, 0x00,
  0x03, 0x00, 0x00, 0x00, 0x1a, 0x00, 0x00, 0x00, 0x73, 0x65, 0x71, 0x75,
  0x65, 0x6e, 0x74, 0x69, 0x61, 0x6c, 0x2f, 0x64, 0x65, 0x6e, 0x73, 0x65,
  0x5f, 0x31, 0x2f, 0x42, 0x69, 0x61, 0x73, 0x41, 0x64, 0x64, 0x00, 0x00,
  0x38, 0xd2, 0xff, 0xff, 0xd6, 0xfd, 0xff, 0xff, 0x00, 0x00, 0x00, 0x08,
  0x03, 0x00, 0x00, 0x00, 0x24, 0x00, 0x00, 0x00, 0x18, 0x00, 0x00, 0x00,
  0x0c, 0x00, 0x00, 0x00, 0x00, 0x00, 0x06, 0x00, 0x08, 0x00, 0x07, 0x00,
  0x06, 0x00, 0x00, 0x00, 0x00, 0x00, 0x00, 0x01, 0x01, 0x00, 0x00, 0x00,
  0x0f, 0x00, 0x00, 0x00, 0x03, 0x00, 0x00, 0x00, 0x0e, 0x00, 0x00, 0x00,
  0x04, 0x00, 0x00, 0x00, 0x01, 0x00, 0x00, 0x00, 0xfe, 0xfc, 0xff, 0xff,
  0x00, 0x00, 0x00, 0x09, 0x01, 0x00, 0x00, 0x00, 0xd6, 0xd2, 0xff, 0xff,
  0x10, 0x00, 0x00, 0x00, 0x10, 0x00, 0x00, 0x00, 0x14, 0x00, 0x00, 0x00,
  0x2c, 0x00, 0x00, 0x00, 0x02, 0x00, 0x00, 0x00, 0x01, 0x00, 0x00, 0x00,
  0x10, 0x00, 0x00, 0x00, 0x15, 0x00, 0x00, 0x00, 0x73, 0x65, 0x71, 0x75,
  0x65, 0x6e, 0x74, 0x69, 0x61, 0x6c, 0x2f, 0x64, 0x65, 0x6e, 0x73, 0x65,
  0x2f, 0x52, 0x65, 0x6c, 0x75, 0x00, 0x00, 0x00, 0x1c, 0xd3, 0xff, 0xff,
  0x00, 0x00, 0x0a, 0x00, 0x10, 0x00, 0x04, 0x00, 0x08, 0x00, 0x0c, 0x00,
  0x0a, 0x00, 0x00, 0x00, 0x02, 0x00, 0x00, 0x00, 0x10, 0x00, 0x00, 0x00,
  0x04, 0x00, 0x00, 0x00, 0x01, 0x00, 0x00, 0x00, 0x0e, 0x00, 0x00, 0x00,
  0x02, 0x00, 0x00, 0x00, 0x0d, 0x00, 0x00, 0x00, 0x03, 0x00, 0x00, 0x00,
  0x7a, 0xfd, 0xff, 0xff, 0x00, 0x00, 0x00, 0x16, 0x01, 0x00, 0x00, 0x00,
  0x52, 0xd3, 0xff, 0xff, 0x10, 0x00, 0x00, 0x00, 0x0f, 0x00, 0x00, 0x00,
  0x14, 0x00, 0x00, 0x00, 0x30, 0x00, 0x00, 0x00, 0x02, 0x00, 0x00, 0x00,
  0x01, 0x00, 0x00, 0x00, 0x70, 0x00, 0x00, 0x00, 0x1a, 0x00, 0x00, 0x00,
  0x73, 0x65, 0x71, 0x75, 0x65, 0x6e, 0x74, 0x69, 0x61, 0x6c, 0x2f, 0x66,
  0x6c, 0x61, 0x74, 0x74, 0x65, 0x6e, 0x2f, 0x52, 0x65, 0x73, 0x68, 0x61,
  0x70, 0x65, 0x00, 0x00, 0x44, 0xd3, 0xff, 0xff, 0xe2, 0xfe, 0xff, 0xff,
  0x00, 0x00, 0x00, 0x05, 0x01, 0x00, 0x00, 0x00, 0x38, 0x00, 0x00, 0x00,
  0x2c, 0x00, 0x00, 0x00, 0x14, 0x00, 0x00, 0x00, 0x00, 0x00, 0x0e, 0x00,
  0x14, 0x00, 0x00, 0x00, 0x10, 0x00, 0x0c, 0x00, 0x08, 0x00, 0x04, 0x00,
  0x0e, 0x00, 0x00, 0x00, 0x03, 0x00, 0x00, 0x00, 0x01, 0x00, 0x00, 0x00,
  0x03, 0x00, 0x00, 0x00, 0x01, 0x00, 0x00, 0x00, 0x01, 0x00, 0x00, 0x00,
  0x0d, 0x00, 0x00, 0x00, 0x01, 0x00, 0x00, 0x00, 0x0c, 0x00, 0x00, 0x00,
  0xe2, 0xd3, 0xff, 0xff, 0x10, 0x00, 0x00, 0x00, 0x0e, 0x00, 0x00, 0x00,
  0x1c, 0x00, 0x00, 0x00, 0x40, 0x00, 0x00, 0x00, 0x04, 0x00, 0x00, 0x00,
  0x01, 0x00, 0x00, 0x00, 0x07, 0x00, 0x00, 0x00, 0x01, 0x00, 0x00, 0x00,
  0x10, 0x00, 0x00, 0x00, 0x22, 0x00, 0x00, 0x00, 0x73, 0x65, 0x71, 0x75,
  0x65, 0x6e, 0x74, 0x69, 0x61, 0x6c, 0x2f, 0x6d, 0x61, 0x78, 0x5f, 0x70,
  0x6f, 0x6f, 0x6c, 0x69, 0x6e, 0x67, 0x32, 0x64, 0x5f, 0x31, 0x2f, 0x4d,
  0x61, 0x78, 0x50, 0x6f, 0x6f, 0x6c, 0x00, 0x00, 0xe4, 0xd3, 0xff, 0xff,
  0xc2, 0xfe, 0xff, 0xff, 0x00, 0x00, 0x00, 0x01, 0x24, 0x00, 0x00, 0x00,
  0x18, 0x00, 0x00, 0x00, 0x04, 0x00, 0x00, 0x00, 0xb4, 0xfe, 0xff, 0xff,
  0x01, 0x00, 0x00, 0x00, 0x01, 0x00, 0x00, 0x00, 0x00, 0x00, 0x00, 0x01,
  0x01, 0x00, 0x00, 0x00, 0x0c, 0x00, 0x00, 0x00, 0x03, 0x00, 0x00, 0x00,
  0x0b, 0x00, 0x00, 0x00, 0x07, 0x00, 0x00, 0x00, 0x09, 0x00, 0x00, 0x00,
  0x72, 0xd4, 0xff, 0xff, 0x10, 0x00, 0x00, 0x00, 0x0d, 0x00, 0x00, 0x00,
  0x1c, 0x00, 0x00, 0x00, 0x2c, 0x00, 0x00, 0x00, 0x04, 0x00, 0x00, 0x00,
  0x01, 0x00, 0x00, 0x00, 0x15, 0x00, 0x00, 0x00, 0x01, 0x00, 0x00, 0x00,
  0x10, 0x00, 0x00, 0x00, 0x0c, 0x00, 0x00, 0x00, 0x74, 0x66, 0x6c, 0x2e,
  0x63, 0x6f, 0x6e, 0x76, 0x5f, 0x32, 0x64, 0x31, 0x00, 0x00, 0x00, 0x00,
  0xb8, 0xd4, 0xff, 0xff, 0x00, 0x00, 0x0e, 0x00, 0x1a, 0x00, 0x08, 0x00,
  0x0c, 0x00, 0x10, 0x00, 0x07, 0x00, 0x14, 0x00, 0x0e, 0x00, 0x00, 0x00,
  0x00, 0x00, 0x00, 0x05, 0x01, 0x00, 0x00, 0x00, 0x3c, 0x00, 0x00, 0x00,
  0x30, 0x00, 0x00, 0x00, 0x14, 0x00, 0x00, 0x00, 0x00, 0x00, 0x0e, 0x00,
  0x18, 0x00, 0x17, 0x00, 0x10, 0x00, 0x0c, 0x00, 0x08, 0x00, 0x04, 0x00,
  0x0e, 0x00, 0x00, 0x00, 0x03, 0x00, 0x00, 0x00, 0x03, 0x00, 0x00, 0x00,
  0x03, 0x00, 0x00, 0x00, 0x03, 0x00, 0x00, 0x00, 0x00, 0x00, 0x00, 0x01,
  0x01, 0x00, 0x00, 0x00, 0x0b, 0x00, 0x00, 0x00, 0x01, 0x00, 0x00, 0x00,
  0x0a, 0x00, 0x00, 0x00, 0x46, 0xff, 0xff, 0xff, 0x00, 0x00, 0x00, 0x11,
  0x01, 0x00, 0x00, 0x00, 0x1e, 0xd5, 0xff, 0xff, 0x10, 0x00, 0x00, 0x00,
  0x0c, 0x00, 0x00, 0x00, 0x1c, 0x00, 0x00, 0x00, 0x40, 0x00, 0x00, 0x00,
  0x04, 0x00, 0x00, 0x00, 0x01, 0x00, 0x00, 0x00, 0x15, 0x00, 0x00, 0x00,
  0x01, 0x00, 0x00, 0x00, 0x08, 0x00, 0x00, 0x00, 0x20, 0x00, 0x00, 0x00,
  0x73, 0x65, 0x71, 0x75, 0x65, 0x6e, 0x74, 0x69, 0x61, 0x6c, 0x2f, 0x6d,
  0x61, 0x78, 0x5f, 0x70, 0x6f, 0x6f, 0x6c, 0x69, 0x6e, 0x67, 0x32, 0x64,
  0x2f, 0x4d, 0x61, 0x78, 0x50, 0x6f, 0x6f, 0x6c, 0x00, 0x00, 0x00, 0x00,
  0x78, 0xd5, 0xff, 0xff, 0x00, 0x00, 0x0e, 0x00, 0x14, 0x00, 0x00, 0x00,
  0x08, 0x00, 0x0c, 0x00, 0x07, 0x00, 0x10, 0x00, 0x0e, 0x00, 0x00, 0x00,
  0x00, 0x00, 0x00, 0x01, 0x30, 0x00, 0x00, 0x00, 0x24, 0x00, 0x00, 0x00,
  0x10, 0x00, 0x00, 0x00, 0x0c, 0x00, 0x10, 0x00, 0x00, 0x00, 0x04, 0x00,
  0x08, 0x00, 0x0f, 0x00, 0x0c, 0x00, 0x00, 0x00, 0x01, 0x00, 0x00, 0x00,
  0x01, 0x00, 0x00, 0x00, 0x00, 0x00, 0x00, 0x01, 0x01, 0x00, 0x00, 0x00,
  0x0a, 0x00, 0x00, 0x00, 0x03, 0x00, 0x00, 0x00, 0x00, 0x00, 0x00, 0x00,
  0x06, 0x00, 0x00, 0x00, 0x08, 0x00, 0x00, 0x00, 0x00, 0x00, 0x0a, 0x00,
  0x0c, 0x00, 0x07, 0x00, 0x00, 0x00, 0x08, 0x00, 0x0a, 0x00, 0x00, 0x00,
  0x00, 0x00, 0x00, 0x03, 0x01, 0x00, 0x00, 0x00, 0xe2, 0xd5, 0xff, 0xff,
  0x10, 0x00, 0x00, 0x00, 0x0b, 0x00, 0x00, 0x00, 0x1c, 0x00, 0x00, 0x00,
  0x28, 0x00, 0x00, 0x00, 0x04, 0x00, 0x00, 0x00, 0x01, 0x00, 0x00, 0x00,
  0x40, 0x00, 0x00, 0x00, 0x03, 0x00, 0x00, 0x00, 0x08, 0x00, 0x00, 0x00,
  0x0b, 0x00, 0x00, 0x00, 0x74, 0x66, 0x6c, 0x2e, 0x63, 0x6f, 0x6e, 0x76,
  0x5f, 0x32, 0x64, 0x00, 0xcc, 0xd5, 0xff, 0xff, 0xc2, 0xd6, 0xff, 0xff,
  0x04, 0x00, 0x00, 0x00, 0x40, 0x00, 0x00, 0x00, 0x82, 0x35, 0x06, 0xc0,
  0x24, 0x27, 0x4f, 0x3e, 0x19, 0x48, 0x39, 0x3d, 0x61, 0x50, 0xb3, 0xbe,
  0x96, 0x15, 0x85, 0xbf, 0x72, 0xee, 0xfc, 0xbf, 0xc0, 0xf0, 0x33, 0xbf,
  0xe5, 0xe4, 0xb1, 0x3e, 0x66, 0x00, 0x19, 0x40, 0x3e, 0xe3, 0xaf, 0x3c,
  0x50, 0xf6, 0x4e, 0x3f, 0xe0, 0xd0, 0x18, 0xbe, 0xdd, 0xf4, 0x94, 0x3f,
  0x54, 0xf8, 0x3b, 0x3c, 0x90, 0x86, 0x31, 0x3e, 0x94, 0x55, 0xe0, 0xbf,
  0x6a, 0xd6, 0xff, 0xff, 0x10, 0x00, 0x00, 0x00, 0x0a, 0x00, 0x00, 0x00,
  0x10, 0x00, 0x00, 0x00, 0x20, 0x00, 0x00, 0x00, 0x01, 0x00, 0x00, 0x00,
  0x10, 0x00, 0x00, 0x00, 0x0d, 0x00, 0x00, 0x00, 0x73, 0x74, 0x64, 0x2e,
  0x63, 0x6f, 0x6e, 0x73, 0x74, 0x61, 0x6e, 0x74, 0x31, 0x00, 0x00, 0x00,
  0x4c, 0xd6, 0xff, 0xff, 0x42, 0xd7, 0xff, 0xff, 0x04, 0x00, 0x00, 0x00,
  0x20, 0x00, 0x00, 0x00, 0x5a, 0x7c, 0x34, 0xc0, 0x98, 0x27, 0xc3, 0xbf,
  0x75, 0x17, 0x2f, 0xc0, 0x17, 0xe1, 0x4d, 0x3b, 0x94, 0xe8, 0x3f, 0xbf,
  0x4e, 0x2f, 0x31, 0xc0, 0x7f, 0x03, 0x2c, 0x3e, 0xd2, 0xa7, 0xeb, 0xbf,
  0xca, 0xd6, 0xff, 0xff, 0x10, 0x00, 0x00, 0x00, 0x09, 0x00, 0x00, 0x00,
  0x10, 0x00, 0x00, 0x00, 0x20, 0x00, 0x00, 0x00, 0x01, 0x00, 0x00, 0x00,
  0x08, 0x00, 0x00, 0x00, 0x0c, 0x00, 0x00, 0x00, 0x73, 0x74, 0x64, 0x2e,
  0x63, 0x6f, 0x6e, 0x73, 0x74, 0x61, 0x6e, 0x74, 0x00, 0x00, 0x00, 0x00,
  0xac, 0xd6, 0xff, 0xff, 0xa2, 0xd7, 0xff, 0xff, 0x04, 0x00, 0x00, 0x00,
  0x00, 0x08, 0x00, 0x00, 0xc8, 0x9b, 0x34, 0x3f, 0x67, 0xd9, 0x31, 0xbd,
  0x27, 0x29, 0x45, 0xbd, 0x35, 0x89, 0x82, 0xbd, 0x46, 0xce, 0x7b, 0xbc,
  0x3a, 0xba, 0x0d, 0xbd, 0x19, 0xf6, 0x76, 0xbe, 0x15, 0xc7, 0x74, 0x3d,
  0x87, 0x63, 0xb0, 0x3d, 0xaf, 0x87, 0xd0, 0xbd, 0xed, 0xaf, 0x1b, 0x3f,
  0x1a, 0x82, 0x0c, 0xbd, 0x67, 0x8f, 0xf9, 0xbc, 0x43, 0x7c, 0x4b, 0x3e,
  0x60, 0x8f, 0x69, 0xbe, 0xe4, 0xd4, 0x1f, 0xbe, 0x4f, 0x17, 0xaa, 0x3d,
  0x70, 0xbe, 0xba, 0x3c, 0x7f, 0x8b, 0x03, 0x3f, 0xca, 0x8d, 0x9d, 0xbd,
  0x95, 0x10, 0xcd, 0x3b, 0x00, 0xe5, 0x29, 0xbc, 0x1d, 0x38, 0x81, 0xbe,
  0xa8, 0xec, 0x70, 0xbd, 0x2c, 0x75, 0x25, 0x3e, 0x1d, 0x33, 0x70, 0xbd,
  0x1b, 0xa6, 0xd7, 0x3d, 0x6c, 0x19, 0x2b, 0xbd, 0xb1, 0xfb, 0x1a, 0x3d,
  0xae, 0xed, 0x4e, 0xbd, 0xe7, 0xf8, 0x1f, 0xbd, 0x6f, 0x46, 0x22, 0xbe,
  0xef, 0xed, 0x83, 0x3d, 0xbd, 0x07, 0x7c, 0x3e, 0xe4, 0x53, 0x53, 0xbc,
  0x9f, 0x9b, 0xdf, 0xbb, 0xcf, 0xe7, 0x51, 0x3e, 0xc8, 0xda, 0x64, 0xbe,
  0xe1, 0x77, 0x4e, 0xbe, 0x5c, 0x59, 0x7f, 0x3d, 0x71, 0xab, 0x34, 0xbc,
  0xe1, 0x93, 0x56, 0xbd, 0x62, 0x2e, 0xae, 0xbc, 0x08, 0x08, 0x69, 0x3c,
  0x79, 0xb7, 0xad, 0x3e, 0x81, 0x3a, 0x56, 0xbd, 0xe5, 0x5b, 0x25, 0xbe,
  0x9b, 0x57, 0x68, 0x3c, 0x76, 0x6f, 0x93, 0x3e, 0x92, 0xfa, 0x1f, 0x3e,
  0x28, 0x6f, 0x14, 0x3d, 0x3d, 0x79, 0x05, 0xbe, 0xa8, 0xdc, 0xce, 0xbd,
  0x79, 0x35, 0xda, 0xbb, 0x48, 0xa8, 0xee, 0xbd, 0x4e, 0x40, 0xf2, 0x3d,
  0x94, 0x50, 0x5f, 0xbd, 0x9f, 0x9f, 0xc6, 0x3e, 0x96, 0xf8, 0xa2, 0xbc,
  0x8f, 0xc1, 0x26, 0xbe, 0x36, 0x44, 0x02, 0xbe, 0x72, 0x94, 0x08, 0x3d,
  0x37, 0x98, 0x9f, 0xbd, 0x5e, 0xf3, 0xe7, 0x3d, 0xb8, 0x2d, 0x9c, 0xbd,
  0x74, 0x11, 0x82, 0x3e, 0x55, 0x86, 0x89, 0x3c, 0xe6, 0x2c, 0xc5, 0xbe,
  0xad, 0x42, 0xa9, 0xbd, 0xbf, 0xd1, 0x41, 0x3d, 0x4b, 0xc2, 0x2e, 0xbd,
  0x98, 0x8e, 0xa7, 0xbb, 0x74, 0x1b, 0x4c, 0x3d, 0x3b, 0x89, 0x12, 0xbe,
  0x26, 0xf0, 0x65, 0x3d, 0xfd, 0x2c, 0x85, 0xbe, 0x2e, 0xf3, 0x85, 0x3e,
  0x84, 0xdb, 0x9f, 0x3d, 0x9e, 0xa1, 0x5a, 0x3d, 0x20, 0x71, 0x47, 0xbd,
  0x40, 0xa4, 0xf4, 0x3c, 0xb0, 0x9e, 0x70, 0x3e, 0x9c, 0x71, 0x4c, 0x3c,
  0x00, 0x01, 0xbe, 0xbe, 0xc8, 0xb7, 0x97, 0xbd, 0x58, 0xab, 0x87, 0xbd,
  0x2b, 0x31, 0xa2, 0x3d, 0x5e, 0xf7, 0x6e, 0xbe, 0x83, 0x1d, 0x10, 0x3c,
  0xf5, 0xd2, 0x1e, 0x3e, 0xa8, 0x67, 0xb0, 0xbc, 0xf1, 0xe6, 0xa5, 0xbe,
  0xc3, 0xb5, 0x30, 0xbd, 0xe7, 0x90, 0x1d, 0x3c, 0xd6, 0x9c, 0x1d, 0xbd,
  0x68, 0x98, 0x9b, 0xbe, 0x8e, 0xa9, 0x13, 0xbe, 0x24, 0xdc, 0x13, 0xbe,
  0x63, 0x7b, 0xa9, 0xbe, 0xfe, 0x89, 0xc8, 0xbc, 0x30, 0xea, 0x70, 0xbe,
  0xda, 0x53, 0x4f, 0xbf, 0x1f, 0x08, 0xaa, 0xbd, 0xaf, 0xbd, 0xe2, 0xbe,
  0x6c, 0x40, 0xb2, 0x3e, 0xb1, 0x1e, 0x3d, 0xbe, 0x07, 0x47, 0xe4, 0x3e,
  0x31, 0x8d, 0x18, 0x3e, 0xd2, 0x38, 0xc7, 0xbe, 0x7b, 0xfb, 0x37, 0x3e,
  0xc8, 0xd5, 0xf0, 0xbd, 0x88, 0xbb, 0xcf, 0xbe, 0x92, 0x10, 0x1a, 0xbe,
  0xe9, 0x68, 0x50, 0xbe, 0x57, 0xc7, 0xf2, 0x3d, 0xee, 0xd4, 0x34, 0xbd,
  0x29, 0xce, 0x52, 0xbe, 0xc6, 0x23, 0xd4, 0x3d, 0xfc, 0xaf, 0xb6, 0x3d,
  0xf3, 0x65, 0x2b, 0x3e, 0x25, 0x74, 0x15, 0xbe, 0xbb, 0x7b, 0xbd, 0xbd,
  0xf5, 0x03, 0x8d, 0x3d, 0xb5, 0x75, 0x10, 0xbe, 0x11, 0x1b, 0x2c, 0x3d,
  0x2b, 0x87, 0x3d, 0x3e, 0x2e, 0xce, 0xeb, 0xbd, 0xdd, 0x72, 0x25, 0x3e,
  0xb9, 0x19, 0x0f, 0x3f, 0x45, 0x0a, 0x5c, 0xbe, 0xa9, 0xed, 0x2b, 0x3e,
  0xc7, 0x31, 0x4b, 0xbb, 0x0e, 0xcc, 0xd4, 0xbe, 0x7a, 0x2a, 0xd1, 0xbe,
  0xcc, 0x3f, 0xa3, 0xbd, 0xb1, 0xf2, 0x39, 0xbf, 0x5e, 0xc5, 0x0a, 0xbe,
  0xcb, 0x5b, 0x52, 0xbe, 0x46, 0xb7, 0x34, 0x3d, 0x51, 0x28, 0x03, 0xbe,
  0x9d, 0x5f, 0x23, 0xbf, 0xbd, 0x8d, 0x01, 0x3f, 0xc7, 0xb7, 0xbb, 0x3d,
  0xd6, 0x1f, 0x69, 0xbe, 0xf7, 0x75, 0xac, 0xbe, 0xa9, 0xcb, 0x82, 0xbd,
  0xf3, 0xf9, 0x4f, 0x3d, 0xba, 0x08, 0x22, 0xbe, 0x8b, 0x3b, 0x54, 0xbe,
  0x18, 0xc1, 0xd1, 0x3d, 0x5c, 0xda, 0x20, 0x3e, 0x32, 0x2c, 0xa1, 0x3e,
  0xdd, 0xae, 0x66, 0xbe, 0x34, 0xd7, 0x52, 0x3d, 0x67, 0x5d, 0x27, 0x3c,
  0xf8, 0x1c, 0x8c, 0x3b, 0x4c, 0x69, 0x0d, 0x3e, 0x5c, 0x61, 0x79, 0x3e,
  0x86, 0x69, 0x1d, 0xbb, 0x4b, 0xce, 0xed, 0x3d, 0x70, 0xf3, 0xbf, 0xbd,
  0x5c, 0xd2, 0xbb, 0xbd, 0xdc, 0xde, 0xf2, 0xbe, 0xd3, 0xe5, 0x9f, 0xbd,
  0xbd, 0x56, 0xc2, 0xbd, 0x3c, 0x39, 0x0d, 0xbf, 0x3b, 0xe2, 0xba, 0xbd,
  0x07, 0xc5, 0x14, 0xbe, 0xb4, 0xc5, 0xa2, 0xbe, 0xb7, 0x32, 0xdd, 0xbd,
  0xef, 0x11, 0x75, 0xbe, 0xd6, 0x04, 0x7a, 0xbd, 0x07, 0xcf, 0xb7, 0xbd,
  0xa0, 0xcb, 0xef, 0xbd, 0x35, 0x05, 0x4a, 0xbc, 0x60, 0xa9, 0xd2, 0xbd,
  0xee, 0x3f, 0x4a, 0x3e, 0x8a, 0x95, 0xe6, 0xbc, 0x44, 0x80, 0x45, 0xbe,
  0xd0, 0x37, 0x45, 0xbd, 0x80, 0x23, 0xf3, 0xbc, 0xca, 0xd6, 0xf3, 0x3e,
  0x6e, 0x04, 0x3c, 0xbd, 0x0c, 0x29, 0xa6, 0xbc, 0xed, 0xb4, 0x24, 0x3c,
  0xbf, 0x88, 0xa1, 0x3d, 0xa8, 0xaa, 0x7a, 0x3f, 0xc4, 0xda, 0x95, 0x3c,
  0x8b, 0x00, 0x77, 0x3e, 0xa7, 0x56, 0xdb, 0x3c, 0x98, 0x20, 0xfb, 0xbb,
  0x24, 0x4e, 0x40, 0x3e, 0x2d, 0x4e, 0x01, 0x3c, 0x0c, 0xf5, 0x8f, 0xbe,
  0x34, 0x6c, 0xf3, 0x3d, 0x6f, 0x6b, 0xb2, 0xbd, 0xdc, 0x1b, 0xdd, 0xbe,
  0x87, 0x37, 0xd0, 0x3c, 0xa7, 0x72, 0x26, 0xbd, 0x8a, 0x99, 0xeb, 0xbc,
  0x6a, 0xab, 0x00, 0x3f, 0x91, 0xec, 0x96, 0xbe, 0x54, 0x6c, 0x31, 0x3d,
  0x10, 0x2e, 0x14, 0xbe, 0x92, 0xc3, 0x1b, 0xbf, 0x5c, 0xd8, 0x9f, 0x3e,
  0xf7, 0xff, 0xca, 0x3d, 0x37, 0xd9, 0xc7, 0xbd, 0x1c, 0x59, 0x54, 0xbe,
  0x09, 0xa1, 0x2f, 0xbe, 0x82, 0x40, 0xb7, 0x3e, 0x9c, 0x97, 0x76, 0xbe,
  0xcb, 0x90, 0x05, 0xbe, 0x6b, 0xf2, 0xff, 0x3d, 0x73, 0xd2, 0x87, 0x3e,
  0x23, 0x97, 0x62, 0x3e, 0x22, 0x6b, 0xa9, 0xbe, 0xf3, 0x7a, 0xe6, 0xbd,
  0x10, 0x66, 0x1a, 0x3d, 0x8e, 0x53, 0xea, 0x3b, 0xe0, 0x92, 0x10, 0xbd,
  0x0f, 0x99, 0xa7, 0xbd, 0xbf, 0x25, 0x06, 0x3c, 0x7c, 0x32, 0x0d, 0x3e,
  0xa5, 0xd5, 0x46, 0xbd, 0x90, 0x9a, 0x19, 0x3d, 0x56, 0xb0, 0xfb, 0xbd,
  0xef, 0x23, 0xe3, 0xbe, 0xf9, 0x53, 0x6d, 0x3d, 0xa9, 0x40, 0xf1, 0x3c,
  0x48, 0x34, 0xb3, 0x3d, 0xbc, 0x87, 0x70, 0xbe, 0x5d, 0xa1, 0xee, 0xbc,
  0xb7, 0x04, 0x1d, 0xbe, 0x88, 0xfe, 0x82, 0x3e, 0x38, 0x32, 0xdd, 0xbe,
  0x02, 0x47, 0x1d, 0x3b, 0x83, 0x0e, 0x04, 0x3e, 0x84, 0x6f, 0x6c, 0xbe,
  0x03, 0x2b, 0xf2, 0x3d, 0x5d, 0xc4, 0xdf, 0x3d, 0xd0, 0x1e, 0x55, 0xbe,
  0x15, 0xad, 0xf5, 0x3c, 0x8a, 0x1d, 0xc7, 0xbe, 0xf0, 0x0c, 0xaa, 0x3d,
  0x6b, 0x3f, 0x14, 0xbe, 0x22, 0xf4, 0x8a, 0xbd, 0x2f, 0xd9, 0xd3, 0xbd,
  0x21, 0xcb, 0x7d, 0x3d, 0x13, 0xa4, 0x53, 0xbe, 0x06, 0x68, 0xc3, 0x3d,
  0x4d, 0x79, 0xa4, 0xbe, 0x33, 0x7c, 0xbc, 0x3b, 0xa4, 0x61, 0x1a, 0x3e,
  0x0d, 0x3f, 0x69, 0x3e, 0x4b, 0x7f, 0x0e, 0xbe, 0x93, 0x77, 0x32, 0x3d,
  0x25, 0x21, 0x96, 0xbd, 0x4b, 0xbc, 0xeb, 0xbd, 0xa0, 0x28, 0x14, 0xbe,
  0xc9, 0x29, 0x78, 0xbd, 0x42, 0x4d, 0x12, 0xbf, 0x99, 0x61, 0xb6, 0xbe,
  0xe0, 0x84, 0x62, 0xbe, 0x22, 0x5a, 0xc9, 0x3e, 0xca, 0x58, 0x47, 0x3d,
  0x5b, 0x00, 0x1a, 0x3d, 0xa1, 0x71, 0x9e, 0xbd, 0x34, 0x72, 0x29, 0xbd,
  0xa5, 0xe9, 0x64, 0xbe, 0x2f, 0x19, 0x62, 0x3d, 0x5a, 0x87, 0x62, 0x3b,
  0xe9, 0x7a, 0x0e, 0xbf, 0x40, 0x04, 0xc8, 0xbb, 0xce, 0x61, 0xe8, 0xbe,
  0x35, 0x29, 0x91, 0x3c, 0xa8, 0xfd, 0xc0, 0xbc, 0xed, 0xaa, 0xdd, 0xbd,
  0x16, 0x4d, 0xd5, 0xbd, 0x97, 0xf8, 0x50, 0xbc, 0x1a, 0x7d, 0x1e, 0xbe,
  0x49, 0x6f, 0x09, 0x3e, 0x07, 0xf1, 0xb4, 0x3e, 0xc1, 0x36, 0x10, 0x3e,
  0x96, 0x54, 0xe0, 0x3d, 0x81, 0x5f, 0xc6, 0x3e, 0x4a, 0xe3, 0xc2, 0x3d,
  0x0c, 0x9b, 0x27, 0x3e, 0x6d, 0x32, 0xe7, 0xbd, 0x12, 0xcd, 0xfc, 0xbe,
  0xe8, 0x6f, 0x2e, 0xbe, 0xb6, 0xeb, 0x9e, 0xbe, 0x5c, 0x16, 0xf4, 0xbd,
  0x8a, 0x9d, 0x36, 0xbd, 0xc3, 0x00, 0x69, 0xbe, 0x6e, 0x5c, 0x78, 0xbe,
  0xf6, 0x5b, 0x5e, 0xbe, 0xef, 0x48, 0x05, 0xbe, 0x5d, 0x05, 0x99, 0x3d,
  0x5a, 0x95, 0xba, 0x3e, 0x2e, 0x41, 0x9b, 0x3d, 0x2a, 0xd9, 0x5a, 0xbe,
  0x8f, 0x8d, 0xc3, 0x3d, 0x73, 0x84, 0x22, 0x3e, 0x58, 0xbf, 0x6f, 0xbe,
  0x9b, 0x85, 0x1c, 0xbe, 0x55, 0xdd, 0x96, 0xbe, 0xbf, 0x47, 0x07, 0xbe,
  0xb7, 0x46, 0x6e, 0x3e, 0x1b, 0xd8, 0x01, 0xbc, 0x33, 0x78, 0x1c, 0xbd,
  0x37, 0x96, 0x44, 0xbd, 0x4e, 0x88, 0x2a, 0x3c, 0x03, 0x4d, 0x0a, 0xbe,
  0xdd, 0x84, 0x97, 0xbc, 0x5f, 0x82, 0xfe, 0xbd, 0xfb, 0xaf, 0xbe, 0xbd,
  0xb3, 0xb1, 0x2c, 0x3d, 0xff, 0xbd, 0x80, 0x3e, 0x10, 0xc3, 0xd5, 0x3c,
  0x03, 0x68, 0x8e, 0xbc, 0x29, 0x83, 0x9c, 0xbe, 0xee, 0x77, 0xda, 0xbd,
  0x55, 0xed, 0xa4, 0x3d, 0xef, 0x74, 0x20, 0xbe, 0xf8, 0xec, 0xc6, 0xbd,
  0x01, 0x98, 0xd7, 0x3c, 0x04, 0x11, 0x5a, 0x3d, 0xaa, 0xb1, 0xbe, 0x3e,
  0x15, 0x98, 0xae, 0xbe, 0xd4, 0x59, 0xab, 0x3d, 0x40, 0x1d, 0xdf, 0xbd,
  0x8c, 0x40, 0xcb, 0x3c, 0xab, 0xb1, 0x1b, 0x3e, 0x5d, 0x5d, 0x9c, 0xbd,
  0x3c, 0x8c, 0x18, 0xbe, 0x61, 0xeb, 0xf5, 0xbd, 0x49, 0x8a, 0x4a, 0xbe,
  0xeb, 0x1b, 0xad, 0xbd, 0x8e, 0x78, 0xb0, 0x3d, 0x82, 0x2f, 0x16, 0x3e,
  0xf6, 0x7d, 0xa1, 0xbd, 0x4a, 0xfe, 0xd6, 0xbd, 0x31, 0x2a, 0xfc, 0x3e,
  0x0b, 0xf5, 0x01, 0xbe, 0x59, 0xcc, 0x5f, 0xbe, 0x0d, 0x7b, 0xa9, 0xbd,
  0x84, 0xfe, 0xe2, 0x3d, 0x53, 0x8c, 0x08, 0xbd, 0x0b, 0xd1, 0x81, 0xbe,
  0x8d, 0x9d, 0xce, 0x3c, 0x60, 0x39, 0x0a, 0x3e, 0xe4, 0x46, 0x9b, 0x3e,
  0xbd, 0x03, 0x5b, 0xbe, 0x93, 0x88, 0xe3, 0x3a, 0xc4, 0x75, 0x44, 0xbd,
  0x67, 0x09, 0xa8, 0xbe, 0x64, 0x60, 0x82, 0xbe, 0xae, 0xb2, 0x62, 0x3e,
  0x72, 0xff, 0xbb, 0x3e, 0xd1, 0xb5, 0x57, 0xbe, 0x28, 0xb3, 0x9e, 0xbe,
  0x16, 0x8a, 0x73, 0x3e, 0x7f, 0xd1, 0x6b, 0xbe, 0x37, 0xf3, 0xbd, 0xbe,
  0x63, 0x20, 0xd5, 0xbd, 0xb6, 0x31, 0xfa, 0x3d, 0xfe, 0xa7, 0xb1, 0x3e,
  0x8c, 0xce, 0x30, 0x3c, 0x94, 0xde, 0x8a, 0xbe, 0x58, 0x3d, 0x5a, 0x3e,
  0xaf, 0x8d, 0x26, 0xbe, 0x24, 0x7e, 0x4d, 0xbe, 0x99, 0xe1, 0xfe, 0x3e,
  0x27, 0x8b, 0x8e, 0xbd, 0x61, 0x5f, 0x1b, 0xbe, 0xe2, 0x2f, 0xcf, 0xbc,
  0x15, 0x69, 0x81, 0xbe, 0xc6, 0xfb, 0x86, 0x3e, 0x7f, 0x27, 0xb6, 0x3d,
  0x82, 0xe0, 0x9f, 0xbd, 0xa0, 0xd6, 0x0c, 0xbb, 0x10, 0xac, 0x8d, 0xbd,
  0x27, 0xbb, 0xa1, 0x3d, 0x8c, 0x23, 0x1f, 0x3f, 0x4f, 0x0d, 0x92, 0xbd,
  0x7d, 0x00, 0x44, 0xbd, 0x25, 0x59, 0xbf, 0xbd, 0x8a, 0xe5, 0xa0, 0xbd,
  0x04, 0x6d, 0x5a, 0xbe, 0x1b, 0xde, 0xd7, 0xbd, 0xc8, 0x11, 0x11, 0xbe,
  0xcd, 0x86, 0xbd, 0x3d, 0x25, 0xaa, 0x90, 0xbd, 0xfc, 0x8a, 0x2b, 0xbd,
  0x31, 0xd1, 0x52, 0xbd, 0x0f, 0x60, 0xac, 0xbd, 0x14, 0x61, 0xd8, 0x3e,
  0x08, 0xc0, 0x04, 0xbe, 0x58, 0x31, 0x41, 0xbd, 0x30, 0x35, 0x6d, 0x3d,
  0x45, 0x36, 0x0a, 0xbd, 0x28, 0xb8, 0x4e, 0x3f, 0x6e, 0x72, 0xff, 0xbc,
  0xfe, 0x49, 0x7d, 0xbd, 0x24, 0x50, 0x0b, 0x3e, 0x75, 0xd0, 0x0c, 0xbc,
  0xcb, 0x96, 0xfc, 0x3d, 0xb7, 0xd3, 0xd7, 0x3b, 0xc1, 0x45, 0xbb, 0xbb,
  0xee, 0xba, 0x80, 0xbe, 0xbe, 0xd6, 0xdb, 0xbb, 0x8b, 0x94, 0xe3, 0xbb,
  0xdc, 0x88, 0x97, 0x3c, 0x44, 0x67, 0x6a, 0xbb, 0x73, 0xd8, 0x79, 0x3e,
  0xfd, 0x38, 0x49, 0xbe, 0x94, 0x7c, 0x1a, 0xbe, 0xbb, 0xc6, 0xd0, 0x3e,
  0x8c, 0xdb, 0xfe, 0xba, 0x4e, 0xd1, 0xf1, 0x3d, 0xae, 0x35, 0x85, 0xbe,
  0x68, 0x9a, 0xa8, 0x3c, 0xeb, 0x60, 0xd5, 0xbe, 0x1a, 0x6d, 0x6b, 0xbe,
  0x6b, 0xae, 0x94, 0xbd, 0x52, 0x32, 0xc8, 0xbe, 0xac, 0x6d, 0x7e, 0xbe,
  0x94, 0x33, 0xa8, 0xbd, 0x23, 0x32, 0x76, 0xbe, 0x76, 0xf8, 0xad, 0xbc,
  0xc0, 0x4a, 0x0f, 0xbf, 0x66, 0x06, 0x16, 0x3e, 0x32, 0xf3, 0x1c, 0x3d,
  0xa2, 0x43, 0x71, 0xbd, 0x67, 0x4c, 0x16, 0xbd, 0x04, 0x80, 0xb0, 0xbb,
  0xc4, 0x07, 0xfd, 0xbd, 0x5a, 0xec, 0x5e, 0xbd, 0xc1, 0x82, 0xc6, 0xbe,
  0x14, 0x9e, 0xb5, 0x3e, 0xe7, 0x95, 0x4b, 0xbd, 0x7d, 0x1c, 0x3b, 0x3e,
  0xf0, 0x21, 0x47, 0xbb, 0xcd, 0x7d, 0x68, 0xbb, 0xbb, 0xa7, 0x4f, 0x3d,
  0x44, 0xb5, 0x52, 0x3e, 0x5e, 0x34, 0x2c, 0xbe, 0x69, 0xea, 0xff, 0xbd,
  0xc0, 0x59, 0x50, 0xbe, 0xeb, 0x5c, 0xa3, 0xbd, 0x49, 0x57, 0x37, 0x3e,
  0xdd, 0x59, 0x73, 0xbd, 0xf4, 0xe4, 0xef, 0x3d, 0xc6, 0xe0, 0x0b, 0x3c,
  0x41, 0xeb, 0xa7, 0xbd, 0x5c, 0x26, 0xdf, 0xbd, 0x8b, 0xde, 0x1e, 0xbe,
  0x08, 0x7f, 0x41, 0x3e, 0xf8, 0xc1, 0x37, 0x3e, 0xa3, 0x69, 0x13, 0x3e,
  0x33, 0x6f, 0xa3, 0xbc, 0x96, 0x1d, 0x0e, 0x3e, 0xa6, 0x20, 0x56, 0xbe,
  0xee, 0x61, 0x25, 0xbd, 0xb3, 0x23, 0x0a, 0xbe, 0x38, 0xa7, 0xf7, 0xbd,
  0xd3, 0x64, 0x23, 0xbd, 0xf6, 0xf3, 0xac, 0x3b, 0x17, 0xcf, 0xfd, 0xbc,
  0xc6, 0x78, 0xa4, 0x3e, 0x0b, 0x7f, 0x55, 0xbe, 0x49, 0xbc, 0x87, 0x3b,
  0x36, 0xac, 0x26, 0xbe, 0x36, 0x48, 0x0e, 0x3d, 0xc3, 0xc0, 0x77, 0x3e,
  0x0b, 0xf3, 0x26, 0x3c, 0xb8, 0x69, 0x59, 0x3b, 0xa5, 0xc2, 0xae, 0xbd,
  0x47, 0x38, 0x5c, 0xbe, 0xac, 0x25, 0xf0, 0x3e, 0x6e, 0x2e, 0x36, 0x3e,
  0x7f, 0x44, 0x16, 0x3e, 0x5d, 0x5c, 0xea, 0xbc, 0x64, 0xaf, 0x73, 0x3e,
  0x18, 0x85, 0xa7, 0x3e, 0xce, 0xb8, 0x01, 0xbf, 0x37, 0x8e, 0xc1, 0x3d,
  0x92, 0xe4, 0x11, 0x3e, 0x67, 0x39, 0x5f, 0xbd, 0xdf, 0x16, 0xec, 0x3e,
  0x9f, 0x0d, 0x1b, 0xbe, 0x79, 0x0c, 0xd6, 0xbc, 0xd6, 0x67, 0x3e, 0xbe,
  0x2d, 0x3d, 0x6d, 0xbf, 0x40, 0xda, 0x1c, 0xbe, 0xb5, 0x9d, 0x5a, 0x3e,
  0x9f, 0xa8, 0x8c, 0xbd, 0x99, 0xab, 0x2e, 0xbe, 0xca, 0x39, 0xc7, 0xbc,
  0x73, 0x82, 0xb6, 0xbd, 0xac, 0xd6, 0xaa, 0xbe, 0xe7, 0xa1, 0x96, 0xbe,
  0xdc, 0x55, 0x5e, 0xbe, 0xe1, 0x86, 0x33, 0x3e, 0x95, 0xe7, 0x04, 0xbe,
  0x6b, 0xe6, 0x80, 0xbe, 0xd2, 0x1a, 0x31, 0xbd, 0xf8, 0x59, 0xe3, 0xbd,
  0x63, 0x1b, 0x5b, 0xbd, 0xe3, 0x21, 0xd6, 0xbd, 0xf7, 0xdb, 0x44, 0xbe,
  0x0a, 0xdf, 0xff, 0xff, 0x10, 0x00, 0x00, 0x00, 0x08, 0x00, 0x00, 0x00,
  0x1c, 0x00, 0x00, 0x00, 0x38, 0x00, 0x00, 0x00, 0x04, 0x00, 0x00, 0x00,
  0x10, 0x00, 0x00, 0x00, 0x04, 0x00, 0x00, 0x00, 0x01, 0x00, 0x00, 0x00,
  0x08, 0x00, 0x00, 0x00, 0x1a, 0x00, 0x00, 0x00, 0x73, 0x65, 0x71, 0x75,
  0x65, 0x6e, 0x74, 0x69, 0x61, 0x6c, 0x2f, 0x63, 0x6f, 0x6e, 0x76, 0x32,
  0x64, 0x5f, 0x31, 0x2f, 0x43, 0x6f, 0x6e, 0x76, 0x32, 0x44, 0x00, 0x00,
  0x04, 0xdf, 0xff, 0xff, 0xfa, 0xdf, 0xff, 0xff, 0x04, 0x00, 0x00, 0x00,
  0x80, 0x01, 0x00, 0x00, 0x64, 0x27, 0x64, 0xbe, 0x7a, 0x80, 0x0c, 0x3d,
  0x42, 0x14, 0x5a, 0x3d, 0x53, 0x8a, 0x00, 0xbf, 0x9b, 0x0e, 0xa4, 0xbd,
  0xe3, 0x8a, 0xd1, 0xbd, 0xb9, 0x45, 0x20, 0x3e, 0x40, 0xd8, 0x97, 0x3b,
  0x44, 0x04, 0x1d, 0xbd, 0x28, 0x5b, 0x0e, 0x3f, 0x32, 0xeb, 0x63, 0x3d,
  0x5a, 0xaa, 0xd9, 0x3d, 0xfe, 0xcf, 0x02, 0xbe, 0xb8, 0x07, 0xcf, 0xbc,
  0x07, 0x4c, 0x54, 0x3e, 0xe6, 0x52, 0x6d, 0xbd, 0xe2, 0x73, 0x29, 0x3d,
  0x82, 0x97, 0x66, 0x3d, 0x32, 0x7f, 0xc6, 0xbd, 0x86, 0xf1, 0xd0, 0x3d,
  0x15, 0x14, 0x02, 0xbd, 0x77, 0x09, 0x80, 0xbd, 0x81, 0xf1, 0xfc, 0x3d,
  0xa4, 0x04, 0xcd, 0x3b, 0x9c, 0xbc, 0x9f, 0x3e, 0x82, 0x89, 0x68, 0xbe,
  0xdd, 0x7d, 0x02, 0xbf, 0x7b, 0x97, 0x4f, 0x3e, 0xe8, 0x6f, 0x1c, 0xbe,
  0xc4, 0xe8, 0x04, 0x3e, 0xe8, 0x21, 0xc8, 0xbe, 0x3e, 0xaf, 0xa9, 0x3e,
  0x63, 0x75, 0xa6, 0x3e, 0x4d, 0x04, 0x90, 0xbd, 0x4d, 0xb6, 0xc3, 0x3c,
  0xf9, 0x98, 0x2e, 0x3d, 0x83, 0x6c, 0x20, 0x3e, 0x37, 0xaa, 0x45, 0xbe,
  0x3e, 0x59, 0xa9, 0x3d, 0xea, 0x7c, 0xd8, 0x3d, 0x8c, 0x3e, 0x94, 0x3d,
  0x2b, 0xf6, 0xe0, 0xbd, 0x90, 0x50, 0x4e, 0xbc, 0xed, 0xee, 0xb2, 0x3d,
  0xaf, 0xf5, 0x78, 0xbd, 0x91, 0xad, 0x12, 0x3e, 0x50, 0x76, 0x03, 0xbc,
  0x92, 0x76, 0x3c, 0xbe, 0xaa, 0xe1, 0x58, 0xbc, 0xd7, 0x09, 0x70, 0xbd,
  0x62, 0x06, 0x07, 0xbd, 0x6f, 0x2d, 0x7f, 0x3c, 0x90, 0xc1, 0x6f, 0xbd,
  0x27, 0x6a, 0xc7, 0x3d, 0xf3, 0x59, 0x8e, 0xbc, 0x9a, 0xe7, 0x9b, 0xbd,
  0xa3, 0xb1, 0xb4, 0x3d, 0x56, 0xc3, 0x2e, 0xbd, 0x07, 0xb8, 0x64, 0xbc,
  0xf9, 0x9c, 0xec, 0x3c, 0xea, 0x51, 0x0d, 0x3d, 0x02, 0x13, 0x2a, 0x3c,
  0x74, 0x8b, 0x59, 0xbc, 0x0f, 0x29, 0xd8, 0x3e, 0x48, 0x0b, 0xd9, 0x3e,
  0xcc, 0x7e, 0x8d, 0x3e, 0x24, 0x07, 0xff, 0xbd, 0x35, 0x9b, 0x00, 0xbe,
  0x80, 0xfb, 0xcd, 0xbc, 0x50, 0x51, 0xa0, 0xbe, 0x9a, 0xba, 0x9c, 0xbe,
  0xe7, 0xcd, 0x5b, 0xbe, 0xc2, 0xa2, 0x99, 0x3e, 0x7b, 0x2f, 0x48, 0x3e,
  0x2b, 0x66, 0x45, 0xbd, 0x53, 0x61, 0x3e, 0x3e, 0xc0, 0x98, 0x82, 0xbe,
  0x37, 0xd5, 0x7f, 0x3d, 0x11, 0xab, 0x14, 0x3d, 0xfc, 0x01, 0xee, 0x3d,
  0x1c, 0xec, 0x72, 0xbd, 0xec, 0xfc, 0xd8, 0xbd, 0x54, 0xc5, 0x91, 0x3d,
  0x44, 0x30, 0x60, 0x3a, 0x18, 0x64, 0xb2, 0xbc, 0x94, 0x8d, 0x72, 0x3e,
  0x09, 0xea, 0xb2, 0x3e, 0x35, 0x57, 0x18, 0x3e, 0x27, 0xe2, 0x7c, 0xbd,
  0xe8, 0x54, 0x7e, 0xbd, 0xa2, 0xe1, 0x96, 0xbd, 0xa9, 0x1c, 0xdf, 0xbd,
  0xfa, 0x32, 0x72, 0xbd, 0x5e, 0xba, 0x07, 0xbe, 0xc5, 0xc0, 0xc2, 0xbd,
  0xfa, 0x43, 0x9e, 0xbe, 0xe2, 0xe0, 0xff, 0xff, 0x10, 0x00, 0x00, 0x00,
  0x07, 0x00, 0x00, 0x00, 0x1c, 0x00, 0x00, 0x00, 0x38, 0x00, 0x00, 0x00,
  0x04, 0x00, 0x00, 0x00, 0x08, 0x00, 0x00, 0x00, 0x04, 0x00, 0x00, 0x00,
  0x03, 0x00, 0x00, 0x00, 0x01, 0x00, 0x00, 0x00, 0x18, 0x00, 0x00, 0x00,
  0x73, 0x65, 0x71, 0x75, 0x65, 0x6e, 0x74, 0x69, 0x61, 0x6c, 0x2f, 0x63,
  0x6f, 0x6e, 0x76, 0x32, 0x64, 0x2f, 0x43, 0x6f, 0x6e, 0x76, 0x32, 0x44,
  0x00, 0x00, 0x00, 0x00, 0xdc, 0xe0, 0xff, 0xff, 0xd2, 0xe1, 0xff, 0xff,
  0x04, 0x00, 0x00, 0x00, 0xc0, 0x00, 0x00, 0x00, 0xeb, 0xe3, 0x4d, 0x3e,
  0x7c, 0xb7, 0xbc, 0x3e, 0x3a, 0x0b, 0xd2, 0xbe, 0xf9, 0x33, 0xe6, 0xbd,
  0x32, 0x23, 0xa4, 0x3e, 0x59, 0xd3, 0x9b, 0x3e, 0x50, 0x38, 0x95, 0x3e,
  0x4b, 0xee, 0x5a, 0x3c, 0x34, 0xe2, 0x8c, 0x3e, 0x9c, 0xc3, 0xb2, 0xbe,
  0x1e, 0x1a, 0x9d, 0xbd, 0xf7, 0xc1, 0xab, 0x3e, 0x1f, 0x5a, 0x1f, 0x3e,
  0x85, 0x02, 0xc1, 0x3e, 0x54, 0xad, 0xc6, 0xbe, 0xea, 0xdc, 0x8b, 0xbc,
  0x2a, 0x4e, 0xc2, 0x3e, 0x9b, 0x77, 0xcc, 0x3e, 0x5a, 0x1b, 0xc8, 0xbe,
  0x76, 0x5d, 0xe0, 0xba, 0x98, 0x7c, 0x4a, 0xbe, 0x5a, 0x03, 0xa0, 0x3e,
  0x5c, 0x49, 0x56, 0xbf, 0x63, 0xb7, 0x3a, 0x3e, 0xa1, 0xd9, 0x28, 0x3e,
  0x82, 0x17, 0x91, 0xbe, 0x95, 0x41, 0x27, 0xbd, 0xf7, 0xd0, 0xc0, 0x3e,
  0x82, 0x37, 0x3e, 0x3e, 0x8f, 0x7c, 0x8b, 0xbd, 0x9e, 0xbf, 0x86, 0x3d,
  0x15, 0xab, 0x84, 0xbd, 0x88, 0xa9, 0xc9, 0x3e, 0xf7, 0x2f, 0xac, 0x3e,
  0x17, 0x15, 0x9e, 0xbe, 0x63, 0x21, 0xf2, 0x3c, 0xe2, 0x48, 0xc0, 0xbe,
  0x5c, 0xde, 0xc6, 0x3e, 0xa8, 0x08, 0x44, 0xbe, 0xbe, 0xf2, 0x5f, 0x3e,
  0xf5, 0x1b, 0xe7, 0xbe, 0x4b, 0x49, 0x90, 0xbe, 0x85, 0xb6, 0x02, 0xbc,
  0x8e, 0x8b, 0x97, 0x3e, 0x5c, 0x3b, 0xfe, 0x3d, 0xe4, 0x18, 0x7e, 0x3b,
  0x9d, 0xf2, 0xb3, 0x3d, 0x33, 0xb6, 0x95, 0xbd, 0xfa, 0xe1, 0xff, 0xff,
  0x10, 0x00, 0x00, 0x00, 0x06, 0x00, 0x00, 0x00, 0x14, 0x00, 0x00, 0x00,
  0x30, 0x00, 0x00, 0x00, 0x02, 0x00, 0x00, 0x00, 0x03, 0x00, 0x00, 0x00,
  0x10, 0x00, 0x00, 0x00, 0x19, 0x00, 0x00, 0x00, 0x73, 0x65, 0x71, 0x75,
  0x65, 0x6e, 0x74, 0x69, 0x61, 0x6c, 0x2f, 0x64, 0x65, 0x6e, 0x73, 0x65,
  0x5f, 0x31, 0x2f, 0x4d, 0x61, 0x74, 0x4d, 0x75, 0x6c, 0x00, 0x00, 0x00,
  0xec, 0xe1, 0xff, 0xff, 0xe2, 0xe2, 0xff, 0xff, 0x04, 0x00, 0x00, 0x00,
  0x00, 0x1c, 0x00, 0x00, 0x08, 0x50, 0x08, 0x3d, 0xda, 0xb1, 0x17, 0xbe,
  0x6d, 0xa6, 0x83, 0xbc, 0xd2, 0xb2, 0x37, 0xbd, 0x7d, 0x57, 0x31, 0xbe,
  0x64, 0xf3, 0x59, 0x3d, 0xa2, 0x09, 0xd8, 0x3b, 0x44, 0xee, 0xc7, 0x3e,
  0xc2, 0xcf, 0x98, 0xbe, 0xe3, 0x4d, 0xbc, 0x3e, 0x77, 0xca, 0xc2, 0x3d,
  0xce, 0xf4, 0x7c, 0x3d, 0xc0, 0xc9, 0x9f, 0x3c, 0xd9, 0x5c, 0x50, 0x3e,
  0xc0, 0x0e, 0xab, 0xbb, 0x2c, 0x9a, 0x38, 0xbe, 0xcb, 0x8e, 0x50, 0x3e,
  0x3a, 0x62, 0x8a, 0xbe, 0xca, 0x18, 0xa1, 0xbe, 0xfc, 0xb7, 0x79, 0x3e,
  0xa7, 0x20, 0x14, 0xbe, 0x80, 0x4b, 0xa3, 0xbb, 0xd3, 0x22, 0x67, 0x3e,
  0xd6, 0x9e, 0x95, 0xbd, 0xce, 0x80, 0x37, 0xbe, 0x21, 0x0c, 0x16, 0xbe,
  0xe9, 0xc2, 0x70, 0x3e, 0xa8, 0x6c, 0x17, 0x3e, 0xad, 0xb2, 0x13, 0x3e,
  0x64, 0x7d, 0x61, 0xbd, 0x50, 0xcf, 0x35, 0x3d, 0x4b, 0x0e, 0x23, 0xbe,
  0xb9, 0x63, 0x26, 0x3e, 0xef, 0xe9, 0xb1, 0xbe, 0x81, 0x32, 0xb8, 0xbe,
  0x87, 0x01, 0xcd, 0xbd, 0x23, 0x61, 0x04, 0x3e, 0x46, 0xe4, 0xd0, 0x3d,
  0x00, 0x32, 0x36, 0x3e, 0x33, 0x7e, 0x5e, 0x3b, 0x69, 0xb9, 0xcc, 0xbe,
  0x07, 0xbc, 0x47, 0x3e, 0x0c, 0xaa, 0xad, 0x3e, 0xad, 0x4e, 0xba, 0x3e,
  0xf7, 0xf9, 0x36, 0x3e, 0x32, 0xf6, 0x73, 0xbe, 0x07, 0x5a, 0xa1, 0xbe,
  0xbe, 0x7f, 0x2b, 0xbe, 0x02, 0x62, 0x3b, 0x3e, 0x67, 0x33, 0x60, 0xbe,
  0x32, 0x8d, 0xc0, 0xbe, 0x3d, 0x67, 0xf5, 0x3e, 0x61, 0x29, 0x07, 0xbe,
  0xb8, 0xd6, 0x2c, 0xbb, 0x0a, 0x7d, 0x8a, 0x3e, 0xd9, 0x00, 0xaf, 0x3a,
  0x11, 0x0f, 0x09, 0xbe, 0xe5, 0x2e, 0x9e, 0x3e, 0xf7, 0xa6, 0x6a, 0x3d,
  0xe0, 0x66, 0x5e, 0x3e, 0x79, 0x8f, 0x31, 0x3e, 0x51, 0xd5, 0xc0, 0x3b,
  0x30, 0x4a, 0x88, 0xbd, 0xb1, 0x2f, 0xcc, 0x3d, 0xb2, 0xdd, 0x96, 0x3d,
  0xbc, 0xe5, 0x90, 0xbe, 0xfb, 0x65, 0x83, 0xbe, 0x3a, 0x6b, 0xc5, 0xbd,
  0x66, 0x83, 0xa7, 0x3c, 0x8e, 0x2f, 0x98, 0xbd, 0xb9, 0x74, 0x97, 0x3e,
  0xc3, 0x27, 0x1a, 0xbe, 0xf4, 0x51, 0xab, 0xbe, 0x59, 0x9e, 0xb8, 0x3e,
  0x4d, 0xd8, 0xa7, 0x3e, 0x3a, 0x56, 0x80, 0x3e, 0xe3, 0xf6, 0x57, 0x3d,
  0x26, 0x33, 0xce, 0xbd, 0x74, 0x2a, 0x82, 0xbe, 0x4b, 0x7c, 0xae, 0xbe,
  0xc4, 0x29, 0x10, 0x3e, 0x97, 0xb5, 0x5c, 0xbe, 0xff, 0xac, 0x8d, 0xbe,
  0xb7, 0x3e, 0xc1, 0xbd, 0x11, 0x3e, 0x9b, 0x3c, 0xb8, 0xe7, 0x8a, 0xbe,
  0x0a, 0xd0, 0x79, 0xbd, 0x5c, 0x4a, 0x4b, 0x3d, 0x3b, 0x00, 0x2b, 0xbe,
  0x71, 0xfe, 0x1a, 0xbe, 0x92, 0xe2, 0x9b, 0x3a, 0x11, 0x48, 0x94, 0x3e,
  0x54, 0xad, 0x5a, 0xbc, 0x08, 0x8d, 0x28, 0xbc, 0x91, 0xc1, 0xcf, 0x3c,
  0xa7, 0xf6, 0x4f, 0xbe, 0x88, 0x6a, 0x96, 0x3d, 0x94, 0xa5, 0xe5, 0xbe,
  0x74, 0xe2, 0x29, 0xbe, 0x68, 0x22, 0x91, 0x3d, 0xc4, 0x89, 0xea, 0xbc,
  0xb7, 0xf7, 0x52, 0xbe, 0x3a, 0xa0, 0x07, 0x3d, 0xd2, 0x92, 0xbc, 0xbe,
  0xf7, 0x52, 0xbc, 0xbe, 0x05, 0xfe, 0xbc, 0x3d, 0x85, 0x31, 0x04, 0x3e,
  0xa8, 0xc9, 0x90, 0x3e, 0xcd, 0x95, 0x82, 0xbc, 0x0f, 0xa1, 0x84, 0x3d,
  0xe1, 0x4f, 0xd1, 0xbc, 0x7c, 0x04, 0x38, 0xbe, 0x9a, 0x51, 0x8e, 0xbd,
  0xbf, 0x99, 0x09, 0xbe, 0xc8, 0x75, 0x2f, 0xbe, 0x11, 0x36, 0xd7, 0x3d,
  0x2a, 0x89, 0xa1, 0x3e, 0x5a, 0xf8, 0x87, 0x3d, 0x0d, 0x05, 0x58, 0x3e,
  0x9b, 0xd2, 0xaf, 0xbe, 0x25, 0x73, 0xf4, 0x3d, 0x34, 0x8a, 0x44, 0xbe,
  0x26, 0x2f, 0x8a, 0x3e, 0xea, 0x8e, 0x1e, 0x3e, 0xb9, 0x55, 0xc8, 0x3d,
  0x7b, 0xdb, 0x38, 0xbe, 0x93, 0x51, 0x4f, 0xbd, 0xb8, 0x43, 0xb1, 0xbd,
  0x27, 0xa4, 0x16, 0xbd, 0xe8, 0x18, 0x00, 0xbd, 0x50, 0x0f, 0x9b, 0xbd,
  0x1f, 0x26, 0x82, 0x3e, 0xc6, 0xab, 0xa6, 0xbc, 0x98, 0xef, 0x17, 0x3c,
  0x38, 0x29, 0xba, 0x3d, 0xcd, 0x51, 0x81, 0xbd, 0xc7, 0x06, 0x3e, 0x3e,
  0xa6, 0x69, 0x1d, 0xbc, 0xd7, 0xf9, 0xa4, 0x3e, 0x01, 0xc6, 0x17, 0x3e,
  0x35, 0x28, 0x71, 0xbc, 0xd7, 0x9b, 0x07, 0xbd, 0xe1, 0x03, 0xd5, 0xbc,
  0x49, 0x1a, 0x97, 0xbc, 0x3c, 0xe8, 0x70, 0x3d, 0xce, 0x01, 0x11, 0x3d,
  0x07, 0xd1, 0xe7, 0x3d, 0xa4, 0x31, 0x49, 0x3e, 0x0b, 0x96, 0xc7, 0xbe,
  0x92, 0x36, 0x58, 0xbf, 0x42, 0xe8, 0xcb, 0xbe, 0x6f, 0xfa, 0x87, 0x3e,
  0x7d, 0x9c, 0x65, 0xbb, 0xd1, 0xad, 0xc3, 0x3b, 0x1c, 0x8b, 0x41, 0xbd,
  0x24, 0x7a, 0x91, 0xbe, 0x4a, 0xfc, 0xa6, 0xbe, 0x34, 0xa9, 0xaa, 0x3e,
  0xe1, 0xa3, 0x0e, 0xbc, 0xfa, 0x81, 0x38, 0x3e, 0x7b, 0xad, 0xdb, 0xbe,
  0xe4, 0x43, 0x72, 0x3d, 0x82, 0x28, 0x24, 0x3e, 0x11, 0x30, 0xc8, 0xbe,
  0x2b, 0xc9, 0xa7, 0xbe, 0x7f, 0x4d, 0x1f, 0xbf, 0xda, 0xf9, 0xa6, 0xbe,
  0x04, 0xba, 0x6a, 0x3e, 0x2e, 0x31, 0x12, 0xbe, 0xef, 0x84, 0x96, 0x3d,
  0xbb, 0x9b, 0x9c, 0xbe, 0x32, 0x42, 0x8a, 0xbe, 0xf9, 0x72, 0x64, 0xbf,
  0x03, 0xb7, 0x83, 0x3d, 0x55, 0x18, 0xda, 0xbd, 0x74, 0x2e, 0xa0, 0xbe,
  0xbb, 0xcd, 0xbf, 0xbe, 0x39, 0x4e, 0x67, 0x3c, 0x9f, 0xfa, 0xd5, 0x3d,
  0x27, 0x14, 0xa0, 0x3e, 0x00, 0xe6, 0x1c, 0xbd, 0x0d, 0x4b, 0xdc, 0x3d,
  0x53, 0x66, 0x56, 0xbe, 0x8d, 0x19, 0x17, 0x3e, 0xa4, 0x21, 0xba, 0xbd,
  0x3e, 0x82, 0x12, 0x3e, 0x21, 0x1a, 0xbe, 0xbe, 0xfc, 0x03, 0x82, 0x3d,
  0xb7, 0xb9, 0x88, 0xbe, 0xcc, 0x7e, 0x19, 0x3e, 0x6b, 0x66, 0x1c, 0xbe,
  0x56, 0x3a, 0xc2, 0xbe, 0xc2, 0x59, 0x0b, 0xbe, 0x8a, 0xb7, 0x64, 0xbd,
  0xfd, 0x2e, 0x18, 0xbd, 0xb1, 0x4d, 0x23, 0x3f, 0xc4, 0x1b, 0xd8, 0x3e,
  0x75, 0x8a, 0xdf, 0xbc, 0x84, 0xf7, 0xc7, 0x3e, 0xd4, 0xad, 0x96, 0xbc,
  0x4f, 0xd7, 0xfa, 0xbd, 0x67, 0xbc, 0xce, 0xbd, 0xb6, 0x07, 0x57, 0x3e,
  0x94, 0x9f, 0x15, 0x3e, 0x28, 0xc2, 0xee, 0xbc, 0xbd, 0x82, 0xa4, 0x3e,
  0x76, 0xc3, 0x10, 0xbd, 0xdb, 0xbd, 0xb2, 0xbe, 0xc7, 0x0f, 0xb7, 0x3d,
  0x5c, 0x7b, 0xc9, 0xbb, 0xf0, 0xc4, 0x84, 0xbd, 0xca, 0x4c, 0x7d, 0x3e,
  0x34, 0xf8, 0x55, 0x3d, 0xf7, 0xb4, 0xdb, 0x3d, 0xd6, 0x7f, 0x8a, 0x3d,
  0x5b, 0x19, 0x81, 0xbd, 0xc5, 0x5b, 0xe6, 0xba, 0xc5, 0x7b, 0xe2, 0xbb,
  0x47, 0x71, 0xb0, 0x3d, 0xb9, 0x8d, 0x49, 0x3e, 0xc8, 0x0d, 0x56, 0x3d,
  0x70, 0xea, 0x1a, 0x3e, 0xc3, 0x4c, 0x1a, 0xbd, 0x7a, 0xcd, 0xc2, 0xbd,
  0x53, 0x4f, 0x1c, 0xbe, 0x92, 0x8b, 0xff, 0x3b, 0xc8, 0x88, 0xce, 0x3d,
  0xd3, 0xdc, 0x86, 0xbd, 0x44, 0x75, 0xf8, 0xbe, 0x7c, 0x12, 0xd3, 0xbd,
  0x5a, 0xc2, 0x13, 0xbf, 0x85, 0x14, 0x17, 0x3e, 0x56, 0x7f, 0x51, 0x3e,
  0x44, 0x4e, 0x4d, 0x3e, 0x55, 0x79, 0xa7, 0xbd, 0xa5, 0xe2, 0xfb, 0x3d,
  0xa9, 0x76, 0x28, 0xbf, 0x28, 0x8e, 0x8b, 0x3e, 0x89, 0xec, 0xf0, 0x3c,
  0x38, 0xaa, 0x01, 0xbf, 0x42, 0xda, 0xfb, 0xbe, 0x32, 0xd3, 0xf2, 0x3c,
  0xe9, 0xe8, 0x40, 0x3d, 0x88, 0xb0, 0xe2, 0xbd, 0xa5, 0x11, 0x3f, 0xbe,
  0x2a, 0x0f, 0xe9, 0x3d, 0xbb, 0xf1, 0x45, 0x3e, 0x13, 0xf5, 0x83, 0x3e,
  0xec, 0x61, 0x40, 0xbd, 0xee, 0x1d, 0xc9, 0x3e, 0x99, 0xda, 0x9c, 0x3e,
  0x2d, 0x94, 0x20, 0xbd, 0x8e, 0xd1, 0x39, 0xbf, 0x4e, 0xd5, 0xa0, 0xba,
  0x21, 0xb2, 0x98, 0x3d, 0xb2, 0x6f, 0xfa, 0xbe, 0x2d, 0xf2, 0x3c, 0xbe,
  0x2e, 0x86, 0x81, 0xbc, 0x96, 0x76, 0xc4, 0x3d, 0xb0, 0xe1, 0x99, 0x3e,
  0xbe, 0x2b, 0x8d, 0xbe, 0x70, 0xc3, 0x77, 0xbe, 0x92, 0x15, 0x65, 0x3e,
  0x84, 0xb4, 0x91, 0x3e, 0xa8, 0x9b, 0x8f, 0xbc, 0xae, 0xdd, 0x3b, 0x3e,
  0xd6, 0x36, 0x8d, 0x3e, 0x18, 0xa4, 0x76, 0x3e, 0x88, 0x01, 0x38, 0xbf,
  0xf7, 0x31, 0xd4, 0x3d, 0x14, 0xa5, 0xd4, 0x3d, 0x70, 0x8f, 0xf8, 0x3d,
  0xff, 0x7d, 0xc6, 0xbd, 0x91, 0x57, 0x26, 0x3d, 0x06, 0xcc, 0xa6, 0x3d,
  0x66, 0x6e, 0x5c, 0x3e, 0x69, 0x4f, 0xf1, 0xbc, 0x5f, 0x44, 0xe6, 0x3c,
  0x4a, 0x68, 0x1f, 0x3e, 0x74, 0x28, 0x30, 0x3e, 0x07, 0x7e, 0xcc, 0xbc,
  0x69, 0x7f, 0xd0, 0x3d, 0x3b, 0x32, 0xbb, 0x3e, 0x49, 0x48, 0x8f, 0xbd,
  0x6a, 0x62, 0x08, 0xbf, 0x9a, 0xb2, 0x0f, 0xbc, 0x89, 0xfa, 0x14, 0x3d,
  0x05, 0x89, 0x50, 0xbe, 0xff, 0x66, 0xa9, 0xbd, 0x70, 0x2c, 0xc8, 0x3c,
  0x83, 0x43, 0x47, 0x3d, 0x5e, 0x20, 0xf8, 0x3c, 0x27, 0x7a, 0xc0, 0xbc,
  0xcb, 0xea, 0xc6, 0xbd, 0x94, 0xed, 0x7f, 0x3e, 0xe2, 0xaa, 0x96, 0x3e,
  0x47, 0x2b, 0x5e, 0xbd, 0xcf, 0x1b, 0x08, 0x3e, 0xf5, 0xa6, 0x6d, 0x3e,
  0x9b, 0x7f, 0x15, 0x3e, 0x48, 0x4e, 0x0a, 0xbf, 0x85, 0x5a, 0xdb, 0x3c,
  0xde, 0x1f, 0xc3, 0xba, 0x2a, 0xbb, 0x25, 0xbe, 0xb2, 0xfa, 0x84, 0xbe,
  0xe7, 0x69, 0x57, 0x3c, 0x8e, 0xb5, 0x2a, 0x3e, 0x91, 0x86, 0x6f, 0x3d,
  0x3b, 0x5b, 0xc4, 0xbd, 0xa2, 0x76, 0xf9, 0xbe, 0xdd, 0x36, 0x9d, 0x3e,
  0x1a, 0x41, 0x8e, 0x3e, 0x65, 0xb7, 0xec, 0xbd, 0xd7, 0xc6, 0x94, 0x3e,
  0x04, 0xe1, 0x9e, 0x3e, 0x78, 0x89, 0xe1, 0xbc, 0x4f, 0xc2, 0x33, 0xbf,
  0x63, 0x30, 0xb2, 0x3d, 0x34, 0x9c, 0xd2, 0x3c, 0x7b, 0x6c, 0x64, 0xbe,
  0x3f, 0x52, 0x88, 0xbe, 0x30, 0x82, 0x0a, 0x3d, 0x47, 0xa6, 0x9f, 0xbd,
  0x02, 0x5d, 0x83, 0x3d, 0xca, 0x26, 0xc0, 0xbd, 0xf4, 0xa3, 0x03, 0xbf,
  0xb3, 0x31, 0x5b, 0xbe, 0xf2, 0x10, 0x0c, 0x3e, 0x64, 0x51, 0x34, 0x3d,
  0x58, 0x63, 0x75, 0x3e, 0xef, 0xa5, 0x4a, 0x3e, 0x13, 0x13, 0xdc, 0xbe,
  0xef, 0xcd, 0x0f, 0xbf, 0xbd, 0x74, 0x39, 0x3e, 0x46, 0x52, 0x8e, 0xbc,
  0x48, 0x0d, 0xa2, 0xbc, 0x7f, 0xb0, 0x1f, 0xbd, 0x48, 0x2c, 0x99, 0xbd,
  0x45, 0xd8, 0x45, 0xbd, 0x34, 0xac, 0xf2, 0x3d, 0xf5, 0x9e, 0xa8, 0xbd,
  0x6d, 0xb9, 0x30, 0xbd, 0x3e, 0xaa, 0xa1, 0xbc, 0xf9, 0x3a, 0x6b, 0x3d,
  0x75, 0xc4, 0x93, 0x3d, 0x79, 0x52, 0x5e, 0x3e, 0x06, 0xef, 0x8a, 0xbc,
  0x6f, 0x7d, 0x9a, 0x3d, 0xe0, 0x6a, 0x1b, 0xbe, 0x34, 0x5f, 0x7c, 0x3e,
  0x17, 0x03, 0xb6, 0x3d, 0x2c, 0xa3, 0x3e, 0xbe, 0xc7, 0x0f, 0x72, 0xbe,
  0x78, 0xc1, 0x7f, 0x3b, 0x4e, 0x5b, 0x6b, 0xbd, 0xa8, 0xc8, 0x1a, 0x3d,
  0x3a, 0x16, 0x8a, 0xbd, 0x32, 0x3d, 0xc2, 0xbd, 0x00, 0x79, 0x46, 0x3e,
  0xfb, 0xbd, 0xea, 0xbc, 0x7a, 0x19, 0x40, 0xbe, 0x2b, 0xf4, 0xd2, 0xbd,
  0xfc, 0xc3, 0x2c, 0x3e, 0x2b, 0xb9, 0x0b, 0x3e, 0x6b, 0x9a, 0xae, 0xbd,
  0x8b, 0x14, 0x1b, 0xbe, 0x3c, 0x70, 0xc6, 0x3d, 0x08, 0x36, 0xc8, 0xbe,
  0x16, 0x1e, 0x7e, 0xbd, 0xf9, 0xe6, 0x49, 0xbd, 0x4a, 0xfc, 0x1d, 0x3e,
  0x01, 0xa6, 0x89, 0x3e, 0x32, 0x38, 0x54, 0x3e, 0x94, 0x53, 0x62, 0xbd,
  0xe1, 0x13, 0xb5, 0x3e, 0x49, 0xe7, 0x33, 0xbe, 0xdc, 0x1b, 0x19, 0xbe,
  0xed, 0xda, 0x82, 0x3e, 0x03, 0x74, 0xab, 0x3e, 0x0a, 0x91, 0x2d, 0x3e,
  0x8f, 0xa5, 0x5a, 0xbc, 0xc0, 0xb8, 0x62, 0xbe, 0x63, 0xa6, 0xb0, 0x3d,
  0xeb, 0x60, 0x94, 0xbd, 0x4d, 0xf2, 0xfd, 0xbd, 0x4d, 0x63, 0x93, 0xbd,
  0xa8, 0x5b, 0xa9, 0x3d, 0xe0, 0xd6, 0xeb, 0x3d, 0x55, 0x2b, 0xde, 0x3d,
  0x9f, 0x5c, 0xef, 0xbd, 0x7f, 0xac, 0x8f, 0x3e, 0x0d, 0x8c, 0x05, 0x3d,
  0x9e, 0xc8, 0x97, 0xbd, 0x31, 0x2b, 0x4a, 0x3e, 0xd4, 0xb3, 0x61, 0x3e,
  0x9a, 0x05, 0x83, 0x3e, 0x41, 0x82, 0xf2, 0x3c, 0x2c, 0xd7, 0x64, 0x3c,
  0x6f, 0x92, 0x47, 0x3d, 0x0d, 0x62, 0x31, 0xbe, 0x44, 0x25, 0x05, 0xbd,
  0x13, 0x71, 0xc9, 0xbd, 0xd4, 0x69, 0xec, 0x3b, 0xf3, 0xf1, 0x50, 0x3d,
  0x2a, 0x7b, 0xa7, 0x3d, 0xda, 0xcd, 0x06, 0xbe, 0xa6, 0x8c, 0x81, 0x3e,
  0x84, 0x0a, 0x75, 0x3d, 0x27, 0x6d, 0xa8, 0xbe, 0xee, 0xc5, 0x85, 0x3d,
  0x01, 0xc3, 0x2f, 0x3e, 0x4b, 0x08, 0x83, 0x3e, 0x87, 0xd4, 0x23, 0x3d,
  0x87, 0x5d, 0x6c, 0xbe, 0x96, 0x47, 0x1d, 0x3d, 0xd7, 0x48, 0x76, 0xbe,
  0xfd, 0x8a, 0x23, 0xbd, 0xf5, 0x99, 0x84, 0xbc, 0x03, 0xb0, 0x9e, 0x3d,
  0xe8, 0x96, 0x11, 0xbe, 0x21, 0xd1, 0x0c, 0xbe, 0x9a, 0xb9, 0x91, 0xbe,
  0x01, 0xd8, 0x1c, 0x3e, 0x8b, 0x26, 0xc7, 0xbd, 0x2d, 0xb0, 0xaf, 0xbe,
  0x72, 0x38, 0x32, 0x3e, 0x65, 0x77, 0x38, 0x3e, 0xeb, 0x28, 0xad, 0x3e,
  0x2e, 0xfc, 0x02, 0xba, 0x37, 0x6d, 0x86, 0xbe, 0xb5, 0x4b, 0xb9, 0x3d,
  0x64, 0x09, 0xa3, 0xbe, 0x5d, 0x5a, 0xba, 0xbd, 0xeb, 0xf3, 0x6d, 0xbc,
  0x8e, 0xef, 0x7d, 0xbd, 0x96, 0xd9, 0x87, 0xbe, 0x8a, 0x44, 0xbe, 0xbc,
  0x34, 0x2f, 0xdc, 0xbd, 0xb0, 0x28, 0x99, 0x3d, 0xcf, 0x83, 0x23, 0x3e,
  0x38, 0x58, 0x87, 0xbd, 0x91, 0x76, 0x9d, 0xbd, 0x2c, 0x0f, 0x76, 0x3c,
  0x90, 0xbb, 0x02, 0x3e, 0xf9, 0xcc, 0x20, 0x3d, 0x14, 0x03, 0x58, 0xbe,
  0xcf, 0x0f, 0x00, 0xbe, 0x4b, 0x71, 0x5e, 0xbe, 0xc6, 0xc8, 0x2d, 0xbe,
  0x01, 0x3a, 0x57, 0xbe, 0x3f, 0x3f, 0x01, 0x3e, 0xfc, 0x9e, 0x0b, 0xbe,
  0x59, 0xaf, 0xad, 0xbd, 0xb4, 0xbf, 0xba, 0x3b, 0x6d, 0xdd, 0x28, 0xbe,
  0x47, 0xff, 0xc5, 0xbd, 0x9c, 0xc7, 0x48, 0xbe, 0x0b, 0xf7, 0xff, 0xbd,
  0xcf, 0x82, 0x30, 0xbc, 0x1c, 0xbe, 0x6b, 0x3d, 0x8c, 0xe2, 0x78, 0xbd,
  0x4d, 0xb8, 0x88, 0x3d, 0xd8, 0x42, 0x1c, 0xbe, 0xbb, 0x6f, 0x2c, 0x3e,
  0x4c, 0x94, 0x54, 0x3d, 0xa8, 0x1f, 0x05, 0xbd, 0xaf, 0xb7, 0xb1, 0x3d,
  0xfa, 0x63, 0xa3, 0x3d, 0x2f, 0x28, 0x13, 0xbc, 0xbd, 0xd0, 0x85, 0x3d,
  0xc4, 0xf9, 0x0a, 0xbd, 0x23, 0xea, 0xcb, 0x3d, 0x1d, 0xb6, 0x07, 0x3a,
  0xa6, 0xdb, 0x8d, 0x3d, 0x84, 0x81, 0x95, 0xbe, 0xc5, 0x24, 0xde, 0x3d,
  0xa0, 0x21, 0x12, 0xbe, 0x47, 0xa0, 0x3e, 0x3d, 0x89, 0x23, 0x2c, 0xbe,
  0x5a, 0x67, 0xef, 0x3d, 0xc3, 0x4f, 0x26, 0xbd, 0x45, 0xb9, 0x5e, 0xbe,
  0x2a, 0xb2, 0x36, 0x3c, 0x6b, 0x08, 0x81, 0x3d, 0xf0, 0x8a, 0x87, 0x3c,
  0x62, 0x19, 0x52, 0xbc, 0xd6, 0x2a, 0x9e, 0x3c, 0x3b, 0xc8, 0x5f, 0xbe,
  0xc0, 0x14, 0x8d, 0xbe, 0x5a, 0x4d, 0xb5, 0x3c, 0xd0, 0x76, 0xe8, 0x3d,
  0xc9, 0xdc, 0xdb, 0xbd, 0xf2, 0xae, 0xf0, 0xbd, 0x36, 0x5c, 0x91, 0x3d,
  0x1b, 0x60, 0x96, 0xbc, 0xd4, 0xdb, 0x3d, 0x3d, 0x7e, 0xa5, 0xe5, 0xbd,
  0x40, 0x77, 0x8e, 0xbe, 0xc0, 0x24, 0x3b, 0xbe, 0xd2, 0x41, 0x3a, 0xbb,
  0xde, 0x9a, 0xc7, 0xbd, 0x22, 0x82, 0xd3, 0x3d, 0x6e, 0x44, 0x5f, 0x3b,
  0x46, 0xf7, 0xd5, 0xbc, 0xd8, 0x8f, 0xf1, 0xbd, 0x0d, 0x0f, 0xf2, 0x3c,
  0x7a, 0x05, 0x59, 0xbd, 0x36, 0xf0, 0xde, 0xbd, 0x31, 0x7b, 0xbc, 0x3d,
  0x69, 0xa3, 0x52, 0x3d, 0x3d, 0xac, 0x6c, 0xbc, 0x3c, 0xb2, 0x0e, 0xbe,
  0xb0, 0x1d, 0x8d, 0x3c, 0x6d, 0x75, 0xcc, 0xbe, 0xa2, 0x61, 0x36, 0xbe,
  0x33, 0x33, 0xca, 0x3d, 0x0e, 0xd1, 0xbc, 0x3a, 0x8b, 0xa9, 0x19, 0xbe,
  0xcc, 0x08, 0xaa, 0xbd, 0xea, 0xe2, 0x18, 0xbe, 0x1d, 0x92, 0x41, 0xbe,
  0x30, 0xbd, 0x8b, 0xbd, 0xea, 0x76, 0x7c, 0xbe, 0xce, 0x1c, 0xb5, 0x3b,
  0x6c, 0x9b, 0x6b, 0xbe, 0xa2, 0x6e, 0x37, 0xbe, 0x9f, 0x83, 0xac, 0xbd,
  0x57, 0x95, 0x4d, 0xbd, 0x05, 0xe2, 0x91, 0xbd, 0x59, 0x03, 0xbb, 0xbe,
  0x3b, 0xbe, 0x24, 0xbe, 0xb9, 0x91, 0xc9, 0x3d, 0xa9, 0xcc, 0x2a, 0xbe,
  0x05, 0x54, 0x12, 0xbe, 0x0f, 0x39, 0x46, 0xbe, 0x52, 0x95, 0xa8, 0x3b,
  0x09, 0x26, 0x47, 0x3c, 0x11, 0x1e, 0x15, 0x3e, 0xd4, 0x48, 0x19, 0x3d,
  0x6a, 0x17, 0xd6, 0x3d, 0x0c, 0xc1, 0x7c, 0xbe, 0xa4, 0x69, 0x87, 0xbd,
  0xde, 0xff, 0x5d, 0xbe, 0x1e, 0x9f, 0xc1, 0xbd, 0x83, 0xab, 0xac, 0x3a,
  0xf5, 0xdc, 0xae, 0xbe, 0xa6, 0x25, 0x70, 0x3c, 0xcf, 0xb5, 0x28, 0x3d,
  0x37, 0xda, 0x2a, 0xbe, 0xbb, 0x3d, 0x9f, 0xbd, 0x91, 0xd7, 0x01, 0x3d,
  0x3e, 0xd5, 0x19, 0xbd, 0x69, 0xb9, 0xdb, 0x3d, 0x16, 0x77, 0x93, 0x3d,
  0x32, 0xaa, 0xe5, 0xbd, 0x67, 0xa0, 0x20, 0xbd, 0x56, 0x7a, 0x0c, 0xbd,
  0xa8, 0x52, 0x13, 0xbe, 0xfc, 0x93, 0xa4, 0x3d, 0x9a, 0x34, 0xbb, 0x3d,
  0x4d, 0x30, 0xd4, 0xbd, 0x40, 0x00, 0x70, 0x3c, 0xff, 0x4c, 0x14, 0x3d,
  0x12, 0xeb, 0x34, 0xbe, 0x08, 0x20, 0x44, 0xbe, 0xf1, 0x67, 0x05, 0xbe,
  0x3e, 0x1b, 0x58, 0xbe, 0xb7, 0x77, 0x88, 0xbd, 0x56, 0x31, 0x5d, 0x3e,
  0xe5, 0x67, 0x3a, 0x3e, 0x76, 0x85, 0xe7, 0xbd, 0xaa, 0x72, 0x3d, 0x3e,
  0xe5, 0x7a, 0xff, 0xbe, 0x0b, 0xd8, 0xec, 0x3d, 0x68, 0x0c, 0xb2, 0xbc,
  0x84, 0x19, 0xd9, 0xbe, 0x79, 0xdc, 0xf2, 0xbe, 0x85, 0xca, 0x7f, 0x3d,
  0x7e, 0x7c, 0x0f, 0x3e, 0xaa, 0x4d, 0x8e, 0xbd, 0x08, 0xe4, 0x0b, 0xbd,
  0x9f, 0xa6, 0xd9, 0xbc, 0x14, 0x27, 0x83, 0xbd, 0x3a, 0xc5, 0x3b, 0x3d,
  0xe2, 0x82, 0xe3, 0xbc, 0x0a, 0x99, 0x1e, 0x3e, 0x7a, 0x4b, 0x8a, 0x3e,
  0x41, 0x54, 0xc3, 0x3d, 0xf3, 0xa4, 0xab, 0xbe, 0xbc, 0x4d, 0x78, 0xbc,
  0x0e, 0x24, 0x09, 0x3e, 0xd4, 0xc0, 0x08, 0xbf, 0x74, 0x52, 0xc1, 0xbe,
  0x2f, 0x70, 0xb3, 0xbc, 0x58, 0xe4, 0xc0, 0x3d, 0xe0, 0xfe, 0x72, 0x3d,
  0xc5, 0x0c, 0xda, 0x3c, 0x31, 0x86, 0x60, 0xbc, 0x66, 0xc4, 0x32, 0xbd,
  0x22, 0x71, 0xf0, 0x3d, 0x8e, 0x71, 0x06, 0xbe, 0x02, 0xf5, 0xeb, 0xbd,
  0x4b, 0xe7, 0xbc, 0x3e, 0x3d, 0x45, 0x94, 0x3d, 0x57, 0xa9, 0xa0, 0xbe,
  0xa7, 0x1b, 0x34, 0x3d, 0x64, 0x8c, 0x73, 0x3c, 0xc4, 0xaa, 0x23, 0x3d,
  0xa1, 0x75, 0x7f, 0xbe, 0x48, 0x6c, 0x4b, 0x3d, 0xa6, 0x0d, 0xd8, 0x3d,
  0x4c, 0xa5, 0x27, 0xbe, 0xe5, 0x90, 0x3e, 0xbd, 0x72, 0x74, 0x26, 0xbc,
  0xec, 0xb7, 0xf6, 0x3d, 0x15, 0x80, 0xed, 0x3d, 0x03, 0xe9, 0x1e, 0x3d,
  0x14, 0x06, 0x55, 0x3e, 0x5c, 0x0f, 0x8e, 0x3e, 0xd2, 0xe7, 0x35, 0x3e,
  0xdd, 0x6d, 0x68, 0xbe, 0x6c, 0x88, 0xc8, 0xbd, 0x66, 0xdd, 0x07, 0x3d,
  0xbf, 0x22, 0x92, 0xbe, 0x4e, 0x28, 0x37, 0xbe, 0xdb, 0x91, 0x4d, 0x3d,
  0xa4, 0xfa, 0x1b, 0x3e, 0x2d, 0xb2, 0x61, 0x3d, 0xf8, 0x15, 0x18, 0x3d,
  0x2f, 0xcd, 0xfc, 0xbc, 0x3f, 0xa3, 0x5e, 0x3d, 0x87, 0x9a, 0x7b, 0xba,
  0x01, 0xeb, 0x1a, 0xbd, 0x9b, 0x99, 0x40, 0x3e, 0x87, 0x7f, 0x79, 0x3e,
  0xb8, 0x11, 0xd0, 0x3d, 0x9a, 0x06, 0x7e, 0xbe, 0xe3, 0x62, 0x06, 0x3e,
  0x91, 0xc4, 0xbb, 0x3d, 0x8d, 0xe1, 0xb2, 0xbd, 0x4f, 0x14, 0xdd, 0xbe,
  0xfe, 0xcd, 0x3d, 0x3d, 0x2a, 0x86, 0x79, 0x3c, 0x9f, 0xba, 0xc8, 0xbd,
  0xef, 0x16, 0xc7, 0x3c, 0x48, 0x29, 0x0a, 0xbf, 0x9a, 0x79, 0x8b, 0x3e,
  0xa0, 0x9d, 0xbf, 0x3c, 0xd1, 0xb9, 0x51, 0xbe, 0x85, 0xc7, 0x7f, 0x3e,
  0xde, 0x9f, 0x51, 0x3e, 0x0c, 0xa6, 0xb4, 0x3e, 0xb6, 0x26, 0xe6, 0xbe,
  0x93, 0x67, 0x45, 0x3d, 0x23, 0x7b, 0x2c, 0x3d, 0x9c, 0xae, 0x7c, 0xbe,
  0xe1, 0x16, 0x8e, 0xbe, 0x8d, 0x2b, 0x2c, 0x3d, 0xb1, 0x0d, 0xe9, 0x3c,
  0xc0, 0x67, 0x51, 0xbc, 0x51, 0xbf, 0x38, 0x3d, 0xed, 0xb3, 0xdd, 0xbe,
  0xe6, 0xd4, 0xeb, 0x3c, 0x78, 0xb8, 0x10, 0x3e, 0x3a, 0x99, 0x85, 0x3d,
  0xdc, 0xa6, 0x5b, 0x3d, 0x18, 0x1a, 0x31, 0x3e, 0x73, 0x45, 0x4b, 0xbe,
  0x8e, 0x28, 0x9a, 0xbe, 0x57, 0xac, 0xe5, 0x3d, 0x84, 0x57, 0x1d, 0x3e,
  0xfb, 0xe4, 0x8a, 0xbd, 0x45, 0xde, 0x9c, 0xbe, 0xf4, 0xe2, 0xcf, 0xbe,
  0xbb, 0xb3, 0x9b, 0xbc, 0x91, 0x89, 0xed, 0xbc, 0xe5, 0x77, 0x80, 0x3d,
  0x0f, 0x44, 0xa4, 0xbe, 0x8a, 0x34, 0x79, 0xbe, 0x1c, 0x99, 0x4a, 0x3f,
  0xb5, 0x82, 0x42, 0xbe, 0x98, 0x57, 0x4f, 0xbd, 0x0f, 0x5d, 0x04, 0xbb,
  0x22, 0xa0, 0x23, 0x3c, 0xcc, 0x1c, 0x2e, 0x3e, 0xfb, 0x45, 0xb8, 0x3d,
  0xc7, 0x6f, 0xac, 0xbe, 0x67, 0x95, 0x83, 0xbe, 0xd8, 0x47, 0x67, 0xbb,
  0x6b, 0x10, 0xb8, 0xbe, 0x6a, 0xd0, 0x6b, 0xbe, 0x45, 0x1a, 0x81, 0x3c,
  0xf2, 0x6b, 0xa9, 0x3c, 0xd4, 0xe5, 0x8e, 0xbe, 0x63, 0x5d, 0x9b, 0xbd,
  0xc0, 0x43, 0x27, 0x3f, 0xcc, 0x9c, 0x8e, 0x3e, 0x22, 0x18, 0x60, 0x3d,
  0xa6, 0x17, 0xd2, 0x3d, 0x6c, 0x28, 0x6b, 0xbe, 0xc2, 0xcd, 0xf9, 0x3d,
  0x04, 0x25, 0x65, 0xbc, 0x98, 0x0f, 0x54, 0xbe, 0xa5, 0x03, 0x02, 0xbe,
  0x98, 0x34, 0xdc, 0xbd, 0x90, 0xf9, 0xa8, 0xbe, 0x24, 0xaf, 0x3a, 0xbd,
  0xab, 0x3b, 0x02, 0xbd, 0x6d, 0xef, 0xfd, 0xbc, 0xd6, 0x12, 0x93, 0x3d,
  0x7c, 0x8e, 0x79, 0xbe, 0xb8, 0xe8, 0x0a, 0x3f, 0x25, 0x02, 0xd2, 0x3e,
  0x4c, 0xb6, 0x30, 0xbc, 0xb9, 0x3e, 0x7d, 0x3e, 0x5b, 0xd5, 0x4e, 0xbe,
  0xce, 0xd5, 0x72, 0x3e, 0xa4, 0x96, 0xda, 0x3c, 0x8f, 0xe7, 0xc9, 0xbe,
  0x15, 0x7a, 0x86, 0xbe, 0xfa, 0xad, 0xa8, 0xbe, 0x65, 0x83, 0x98, 0xbe,
  0x61, 0x67, 0x83, 0xbd, 0x67, 0x48, 0x8b, 0xbc, 0x76, 0xb5, 0xf2, 0x3d,
  0x6d, 0x2b, 0x64, 0xbe, 0x01, 0x74, 0xfa, 0xbd, 0xfb, 0x7f, 0x48, 0x3f,
  0x0a, 0x72, 0x64, 0x3e, 0x39, 0x92, 0x3b, 0xbe, 0x55, 0x75, 0xe9, 0x3d,
  0x1d, 0xe6, 0x0c, 0x3e, 0x9a, 0x2c, 0x6e, 0x3c, 0x41, 0x86, 0xa5, 0xbd,
  0x23, 0x2b, 0x28, 0xbe, 0x1b, 0xd3, 0xcd, 0xbd, 0x02, 0xe9, 0xcd, 0xbc,
  0x46, 0xb8, 0x87, 0xbe, 0xed, 0x5b, 0xb1, 0xbe, 0x23, 0x8b, 0xdd, 0x3c,
  0x51, 0xee, 0xca, 0xbd, 0xe2, 0x32, 0x87, 0xbe, 0x8b, 0xd2, 0x91, 0xbe,
  0x42, 0x05, 0x57, 0x3f, 0xce, 0xbc, 0xa2, 0x3e, 0x47, 0x59, 0x06, 0x3a,
  0x2b, 0xc9, 0xa7, 0x3e, 0x91, 0xfa, 0x29, 0xbe, 0x53, 0x44, 0x3a, 0x3e,
  0xc6, 0xa3, 0x87, 0xbe, 0x19, 0xcd, 0xb1, 0xbe, 0x86, 0xde, 0x2d, 0xbe,
  0xeb, 0x63, 0xb3, 0xbd, 0x74, 0xdd, 0x8d, 0xbe, 0xc6, 0x36, 0x8c, 0x3c,
  0x9e, 0xcb, 0x27, 0xbe, 0x1c, 0x2f, 0xfc, 0xbd, 0x93, 0x6a, 0x35, 0xbe,
  0x07, 0xb3, 0x93, 0x3d, 0x6a, 0x33, 0x3e, 0x3f, 0x38, 0x02, 0x99, 0x3e,
  0xfd, 0x54, 0xe4, 0x3d, 0x17, 0x79, 0xa2, 0x3d, 0xce, 0xb8, 0x33, 0xbd,
  0x2b, 0xd9, 0x29, 0x3d, 0x9f, 0xb6, 0x7a, 0x3e, 0xec, 0x4d, 0x3a, 0xbe,
  0x2a, 0xce, 0xcd, 0xbd, 0xf7, 0x43, 0x7b, 0xbe, 0xd0, 0x3c, 0xdb, 0xbe,
  0x14, 0x82, 0xd7, 0xbc, 0xd5, 0x26, 0x82, 0xbe, 0xa5, 0x44, 0x92, 0xbe,
  0xd2, 0xba, 0x82, 0xbe, 0xef, 0xef, 0xd3, 0xbd, 0xe4, 0x91, 0x4d, 0x3e,
  0xb3, 0xd6, 0xce, 0xbd, 0xfa, 0xfe, 0xb2, 0x3f, 0x89, 0x7e, 0x31, 0x3b,
  0xb8, 0x23, 0x91, 0xbe, 0x7a, 0xc0, 0x13, 0xbd, 0x05, 0xbc, 0x83, 0x3e,
  0xc1, 0x48, 0x83, 0xbe, 0x6a, 0xc2, 0x84, 0xbe, 0x01, 0x18, 0x01, 0xbe,
  0x80, 0x3f, 0xd8, 0xbe, 0x68, 0xa9, 0x76, 0xbe, 0x8b, 0x4b, 0x2b, 0xbe,
  0x01, 0x1f, 0x2f, 0xbc, 0x05, 0x9b, 0xd2, 0x3d, 0x18, 0x19, 0x87, 0xbd,
  0x50, 0x27, 0x5f, 0x3e, 0x6c, 0xc6, 0x5f, 0xbe, 0xd5, 0x60, 0x36, 0x3e,
  0xab, 0xbd, 0xa0, 0x3e, 0x73, 0x67, 0x4d, 0x3e, 0x95, 0xe9, 0x08, 0xbe,
  0x4c, 0x56, 0x5d, 0xbe, 0xe4, 0x00, 0xdc, 0x3d, 0x1b, 0x47, 0x83, 0xbd,
  0x71, 0x7a, 0x20, 0x3c, 0x49, 0xa7, 0x8c, 0xbe, 0x6e, 0x9b, 0x35, 0xbd,
  0xea, 0xd2, 0x6e, 0x3d, 0x00, 0xff, 0x85, 0x3d, 0xe3, 0xd5, 0x8f, 0x3d,
  0x37, 0x40, 0xde, 0xba, 0x89, 0xa2, 0xc0, 0x3d, 0x14, 0xbf, 0xb3, 0x3d,
  0xce, 0x3c, 0x81, 0x3e, 0x20, 0x5d, 0x1d, 0xbe, 0x8d, 0x08, 0xa1, 0x3e,
  0x4a, 0x4d, 0x6c, 0x3e, 0xa9, 0xb8, 0x44, 0x3e, 0x48, 0x4f, 0x21, 0x3c,
  0x94, 0x24, 0x62, 0xbe, 0xbe, 0xb1, 0xce, 0x3d, 0xad, 0x05, 0xf3, 0xbe,
  0x57, 0xad, 0x11, 0xbe, 0x44, 0x79, 0x7d, 0x3e, 0x5c, 0x73, 0x36, 0x3e,
  0x5c, 0x16, 0x1d, 0x3e, 0xa6, 0xba, 0x79, 0x3e, 0xb0, 0x2c, 0x23, 0x3d,
  0x75, 0x90, 0xc1, 0x3c, 0x72, 0xab, 0x90, 0x3e, 0x88, 0x78, 0xac, 0x3e,
  0x84, 0xb2, 0xac, 0x3e, 0xeb, 0x98, 0x5b, 0x3d, 0x50, 0x61, 0xf9, 0xbd,
  0xd6, 0x31, 0x0e, 0xbd, 0x49, 0x6a, 0xe8, 0x3c, 0x9d, 0xd0, 0x0b, 0x3e,
  0xcd, 0xfe, 0xa8, 0xbe, 0xe6, 0x95, 0x1d, 0xbd, 0x4b, 0x03, 0xde, 0x3e,
  0x54, 0x89, 0xf3, 0xbb, 0xd1, 0xbe, 0xcb, 0xbd, 0x51, 0xbe, 0xa2, 0x3e,
  0x7f, 0xa5, 0xc2, 0x3d, 0x80, 0xa8, 0x0d, 0xbe, 0x6d, 0x39, 0xa0, 0x3e,
  0x55, 0x86, 0xaf, 0x3e, 0x10, 0x99, 0xc1, 0x3e, 0xbb, 0xd1, 0xf9, 0x3d,
  0xfc, 0x4f, 0x33, 0x3e, 0xb9, 0x19, 0x5c, 0xbe, 0x8f, 0x88, 0xb0, 0x3d,
  0x2d, 0x2e, 0x2c, 0x3e, 0xaf, 0xc9, 0xee, 0xbe, 0xd4, 0xbe, 0x8c, 0x3c,
  0x13, 0xe4, 0x40, 0xbe, 0x39, 0xb6, 0x85, 0x3d, 0x3e, 0x33, 0xa4, 0x3d,
  0xec, 0xa2, 0x1b, 0x3c, 0x57, 0x3c, 0xb8, 0x3d, 0x46, 0xa5, 0x04, 0x3d,
  0x14, 0x79, 0xd1, 0x3e, 0x28, 0x51, 0xed, 0x3d, 0x4b, 0xfb, 0xd7, 0x3e,
  0xe7, 0xce, 0x03, 0x3e, 0xd5, 0xd4, 0x55, 0xbe, 0x95, 0x90, 0x5a, 0xbd,
  0x90, 0xbc, 0x31, 0x3e, 0xed, 0x90, 0xa3, 0x3d, 0x46, 0x8d, 0xa4, 0xbe,
  0x9a, 0x84, 0x02, 0x3e, 0x06, 0xed, 0x75, 0x3d, 0xba, 0xf6, 0x49, 0xbc,
  0xda, 0x37, 0xe8, 0xbd, 0x16, 0x14, 0xa5, 0x3d, 0x3e, 0x26, 0x9b, 0xbc,
  0xdc, 0xbb, 0x52, 0xbd, 0x42, 0x61, 0x92, 0x3e, 0x89, 0x34, 0xbe, 0xbc,
  0x28, 0xd5, 0xbf, 0x3d, 0x22, 0x22, 0x72, 0x3d, 0xa7, 0xb8, 0xec, 0x3d,
  0x6f, 0x6c, 0xe8, 0xba, 0x4b, 0x3a, 0xe7, 0xbd, 0x41, 0x27, 0x89, 0x3c,
  0x06, 0x4d, 0xe1, 0xbe, 0xcc, 0x7c, 0xca, 0xbe, 0x5f, 0x4a, 0x98, 0xbd,
  0x2d, 0x31, 0x3b, 0x3d, 0x0c, 0x55, 0x30, 0xbd, 0x0b, 0x79, 0x58, 0xbd,
  0x0b, 0x31, 0xc9, 0x3b, 0x12, 0x7b, 0xcc, 0xbe, 0xe9, 0x40, 0x19, 0x3e,
  0x90, 0x46, 0xf2, 0xbb, 0xc7, 0xca, 0x7d, 0x3e, 0x8b, 0x41, 0xeb, 0xbd,
  0x1a, 0xf5, 0x42, 0xbe, 0x58, 0x6a, 0x45, 0xbb, 0xf5, 0x19, 0x89, 0xbd,
  0x07, 0x2b, 0xee, 0xbd, 0xf7, 0x8c, 0x45, 0xbe, 0xff, 0xde, 0x58, 0x3d,
  0x68, 0x18, 0xae, 0x3c, 0xf8, 0x00, 0x55, 0xbe, 0x3f, 0x31, 0x63, 0xbe,
  0x52, 0x94, 0x7b, 0xbe, 0x9c, 0xf5, 0x44, 0xbe, 0x3b, 0x0a, 0x22, 0xbe,
  0xef, 0xc2, 0x0b, 0xbe, 0x3d, 0xcd, 0x31, 0xbe, 0x26, 0x67, 0xa2, 0x3d,
  0x5a, 0x5c, 0x66, 0xbe, 0xe1, 0xfc, 0xbd, 0x3d, 0x99, 0x2a, 0x42, 0xbe,
  0x23, 0x18, 0x2c, 0xbd, 0x31, 0x7d, 0xb0, 0xbd, 0x1b, 0x8d, 0x8f, 0xbe,
  0x37, 0x3b, 0x90, 0xbe, 0x06, 0x0d, 0x42, 0x3e, 0x43, 0x2f, 0x1b, 0x3e,
  0x33, 0x07, 0xa4, 0xba, 0x39, 0x07, 0x95, 0xbd, 0xce, 0x3f, 0xb9, 0xbd,
  0x5c, 0x59, 0x65, 0xbd, 0x4c, 0xad, 0x4d, 0xbd, 0x65, 0x06, 0x55, 0xbe,
  0x11, 0xd9, 0x05, 0x3e, 0xed, 0x2b, 0x4f, 0xbd, 0xc0, 0x79, 0xac, 0x3c,
  0x15, 0x13, 0x86, 0xbe, 0xe2, 0xae, 0x40, 0xbd, 0x19, 0xad, 0x2f, 0x3e,
  0x7d, 0x58, 0xca, 0xbe, 0x07, 0x5e, 0x8d, 0x3c, 0x63, 0x41, 0x04, 0x3e,
  0xec, 0x2f, 0x47, 0xbd, 0x73, 0xbc, 0x1a, 0x3d, 0x25, 0xd7, 0x10, 0x3e,
  0x7a, 0xde, 0x21, 0xbe, 0x36, 0x29, 0xb9, 0x3d, 0xa5, 0xdd, 0x7d, 0xbd,
  0xfb, 0x14, 0x80, 0x3c, 0xd7, 0x86, 0x5c, 0xbd, 0xd2, 0x4c, 0x79, 0xbe,
  0xe8, 0xdd, 0x53, 0x3d, 0xf9, 0x25, 0x17, 0x3d, 0x6f, 0x4a, 0xa3, 0x3a,
  0xb8, 0x6a, 0xf7, 0xbd, 0x4e, 0x7f, 0x0b, 0xbe, 0x50, 0xe7, 0xc0, 0xbd,
  0xde, 0x03, 0x44, 0xbe, 0x75, 0x06, 0xed, 0xbd, 0xe2, 0x42, 0x3e, 0xbe,
  0xa8, 0x4d, 0x2b, 0xbe, 0xc7, 0x98, 0xc5, 0xbd, 0xfd, 0x7f, 0x47, 0xbe,
  0xfa, 0xf9, 0x2a, 0x3d, 0xdb, 0xcc, 0x44, 0xbe, 0x71, 0x85, 0x34, 0xbe,
  0x6a, 0xf9, 0x07, 0xbe, 0xed, 0xd4, 0xb6, 0x3d, 0xfd, 0x0b, 0xd6, 0xbd,
  0x47, 0x2c, 0x01, 0x3e, 0xf1, 0x96, 0x20, 0x3c, 0x7a, 0xd6, 0x99, 0xbe,
  0x71, 0xf2, 0x52, 0xbe, 0x77, 0xfe, 0x7a, 0x3c, 0x9f, 0x81, 0xf4, 0x3d,
  0x22, 0x2b, 0x32, 0xbd, 0x2c, 0xa6, 0x2f, 0xbd, 0x6f, 0xb9, 0x99, 0x3c,
  0x3b, 0x36, 0x90, 0xbc, 0xe2, 0xe6, 0x41, 0xbe, 0x29, 0xa3, 0x8f, 0xbc,
  0xaa, 0xb7, 0xef, 0x3d, 0xcf, 0x40, 0xac, 0xbd, 0xc7, 0xa2, 0x5b, 0xbe,
  0x77, 0xe3, 0x67, 0xbb, 0x33, 0xe1, 0x99, 0x3b, 0x93, 0x31, 0xa9, 0xbd,
  0x35, 0xe1, 0xd7, 0xbd, 0xee, 0x77, 0x8c, 0xbe, 0x3f, 0xf0, 0x3a, 0xbe,
  0xbc, 0x22, 0x2c, 0x3e, 0x87, 0xf6, 0xc0, 0xbd, 0x39, 0xa3, 0xf1, 0xbd,
  0xcb, 0x25, 0xe1, 0x3b, 0xe5, 0x23, 0x0c, 0x3e, 0xd8, 0xae, 0x22, 0x3d,
  0x13, 0x7a, 0x0b, 0x3c, 0xfa, 0x01, 0x0d, 0x3e, 0x59, 0xd9, 0x51, 0x3d,
  0x17, 0xe4, 0x05, 0x3e, 0x77, 0x12, 0x17, 0xbe, 0x63, 0x9f, 0x1f, 0x3e,
  0xf6, 0xa2, 0x53, 0xbe, 0x52, 0x02, 0x3d, 0xbe, 0x7d, 0x00, 0xda, 0x3d,
  0x80, 0xc5, 0x5c, 0xbd, 0x7d, 0x1d, 0x00, 0x3e, 0x8b, 0x4d, 0x2d, 0x3d,
  0xb6, 0x8a, 0xe8, 0xbd, 0xab, 0x20, 0x18, 0xbe, 0xc2, 0xdd, 0x6d, 0xbe,
  0xaf, 0x14, 0x4d, 0xbe, 0xf2, 0xdf, 0x4d, 0x3a, 0x41, 0xa8, 0x0d, 0x3e,
  0xea, 0x86, 0x5e, 0xbe, 0x44, 0x37, 0x1e, 0x3d, 0x4f, 0x7f, 0x2a, 0xbe,
  0xa2, 0x43, 0x34, 0xbe, 0x5f, 0x58, 0xfc, 0xbd, 0xf2, 0x80, 0x38, 0xbe,
  0x25, 0x26, 0x35, 0x3d, 0x67, 0x12, 0x91, 0xbe, 0xb4, 0xfa, 0x41, 0xbd,
  0xf7, 0xfa, 0x59, 0xbd, 0xf9, 0xfd, 0x8d, 0x3d, 0x4d, 0x42, 0x0a, 0x3e,
  0x64, 0x0a, 0xcd, 0xbd, 0x6c, 0xbf, 0x3a, 0xbe, 0x9d, 0xa5, 0x4e, 0xbe,
  0x68, 0x23, 0x6f, 0xbe, 0x82, 0x1b, 0x1a, 0xbe, 0x58, 0x90, 0xbb, 0x3e,
  0xc9, 0xc2, 0x98, 0x3c, 0x48, 0x76, 0x9b, 0xbc, 0xf8, 0xd8, 0x54, 0xbe,
  0x9b, 0xd4, 0x5e, 0xbe, 0x5e, 0xf8, 0xed, 0x3d, 0x19, 0xaf, 0xfe, 0x3d,
  0x4f, 0x47, 0x18, 0x3d, 0x85, 0x4d, 0x85, 0xbd, 0x74, 0x70, 0x20, 0xbe,
  0x26, 0x6c, 0x49, 0xbe, 0x89, 0x63, 0xd0, 0xbc, 0xaa, 0x6a, 0x25, 0x3d,
  0x6d, 0x7f, 0x82, 0xbe, 0x97, 0x24, 0x35, 0x3e, 0x91, 0xe7, 0xbb, 0xbd,
  0x57, 0x89, 0x67, 0xbd, 0xf7, 0xa3, 0x3f, 0xbe, 0x8a, 0xeb, 0x76, 0xb9,
  0x6c, 0xdb, 0xef, 0xbd, 0x58, 0xf1, 0x42, 0xbd, 0xb3, 0x90, 0x1b, 0xbe,
  0x61, 0x84, 0x22, 0x3d, 0x4e, 0x6b, 0x6f, 0xbd, 0x25, 0x33, 0x8a, 0x3c,
  0xed, 0x17, 0x63, 0x3d, 0x58, 0x52, 0x90, 0x3e, 0x7c, 0x2a, 0x1b, 0xbe,
  0x5e, 0xa4, 0x2c, 0xbe, 0x6c, 0xda, 0x5d, 0xbd, 0x6d, 0xdf, 0x2d, 0x3e,
  0x9d, 0xee, 0xd9, 0x3c, 0x2c, 0x35, 0x3a, 0x3e, 0x29, 0x97, 0x27, 0xbd,
  0xb4, 0x58, 0x3d, 0xbd, 0xfb, 0xe6, 0x68, 0xbe, 0x25, 0xcd, 0x1a, 0xbd,
  0x74, 0x89, 0x83, 0x3d, 0x37, 0x90, 0x3e, 0x3e, 0xce, 0xfd, 0x50, 0x3c,
  0x62, 0x50, 0xc0, 0xbd, 0x50, 0x0c, 0x10, 0xbe, 0x68, 0x8d, 0x34, 0xbe,
  0x25, 0x07, 0xfb, 0x3d, 0x72, 0x32, 0x9e, 0x3e, 0x73, 0xae, 0x8b, 0xbd,
  0xa1, 0x90, 0x31, 0xbe, 0xf1, 0xe9, 0xbc, 0xbb, 0xc5, 0x32, 0x3c, 0x3d,
  0x6a, 0x6a, 0x0b, 0x3e, 0x07, 0x74, 0x69, 0x3d, 0x94, 0x53, 0x22, 0xbd,
  0x05, 0xfc, 0x22, 0xbe, 0x26, 0xa6, 0x50, 0x3e, 0x77, 0x66, 0x11, 0x3d,
  0x51, 0x8b, 0x7a, 0x3d, 0xda, 0xe7, 0x8b, 0x3d, 0x94, 0x74, 0xf4, 0x3d,
  0xac, 0x54, 0x05, 0xbe, 0x3b, 0xbd, 0xdb, 0x3d, 0x19, 0x1c, 0x07, 0x3d,
  0x74, 0x05, 0x73, 0xbe, 0x1f, 0x42, 0x9f, 0xbe, 0x7e, 0x98, 0x00, 0xbe,
  0xc6, 0xd7, 0x94, 0x3c, 0xea, 0x3c, 0xe6, 0x3a, 0xf3, 0x9b, 0x49, 0x3d,
  0x4b, 0x62, 0x93, 0xbe, 0xe0, 0x86, 0x85, 0xbe, 0xd0, 0x6e, 0xc9, 0x3d,
  0xf5, 0xd9, 0xa5, 0x3d, 0x5b, 0xda, 0xd7, 0xbc, 0xcc, 0xcd, 0x0e, 0xbe,
  0x0d, 0x2c, 0x09, 0x3e, 0x73, 0xf4, 0xec, 0xbd, 0xbf, 0x84, 0xbe, 0x3d,
  0xfe, 0x39, 0x31, 0x3d, 0x7d, 0x3c, 0xbe, 0xbc, 0x8b, 0x71, 0x40, 0xbd,
  0x15, 0xbe, 0xbd, 0xbd, 0x7a, 0x3e, 0xbc, 0xbd, 0xce, 0x40, 0x17, 0x3c,
  0xe0, 0xb1, 0x06, 0xbd, 0x46, 0x2f, 0x93, 0xbe, 0x87, 0xa1, 0x9d, 0xbd,
  0x0a, 0x14, 0x35, 0x3e, 0xe2, 0x74, 0x6c, 0xbe, 0xf2, 0x5a, 0x9b, 0x3d,
  0x82, 0x86, 0x88, 0x3d, 0x3d, 0x26, 0x99, 0xbd, 0x86, 0xc1, 0x9d, 0x3d,
  0x2f, 0xc9, 0x92, 0xbd, 0xaf, 0xa8, 0x8f, 0x3e, 0x9b, 0x99, 0x29, 0xbd,
  0x19, 0xb6, 0x26, 0xbd, 0x3b, 0x44, 0x95, 0xbd, 0x34, 0xda, 0x8a, 0x3e,
  0xe2, 0xc2, 0x8a, 0xbe, 0xd5, 0x85, 0x7c, 0xbe, 0xe8, 0xae, 0x36, 0xbd,
  0x9b, 0x36, 0x63, 0xbb, 0x04, 0x80, 0x4a, 0x3d, 0x47, 0x47, 0x4e, 0x3d,
  0x75, 0x1d, 0xde, 0xbe, 0x0e, 0x0d, 0x1d, 0xbe, 0x6e, 0xa7, 0x00, 0xbf,
  0x70, 0x83, 0x16, 0x3e, 0x8d, 0xc8, 0x2b, 0x3e, 0xe6, 0x72, 0x3b, 0x3e,
  0x7d, 0x85, 0x34, 0xbe, 0xdc, 0x67, 0xa3, 0xbd, 0x04, 0x69, 0x07, 0xbf,
  0xc7, 0xbb, 0x91, 0x3e, 0x5a, 0xae, 0x8d, 0x3e, 0x2b, 0x26, 0xc1, 0xbe,
  0x5d, 0x5d, 0xd1, 0xbe, 0x5b, 0x10, 0x60, 0x3d, 0xf0, 0xcd, 0xfd, 0x3d,
  0xb3, 0xac, 0x62, 0xbc, 0x0c, 0xdd, 0x2f, 0xbd, 0x75, 0xd5, 0x6e, 0xbe,
  0xb4, 0x20, 0x52, 0x3e, 0x7e, 0xd0, 0xc4, 0x3e, 0xd0, 0x7a, 0xa7, 0xbd,
  0x51, 0x22, 0xf3, 0x3d, 0x26, 0x76, 0x0b, 0x3d, 0xa1, 0x62, 0x49, 0x3d,
  0x7f, 0xa2, 0xa8, 0xbe, 0xd7, 0xa3, 0x24, 0x3e, 0x15, 0x59, 0x8c, 0xbc,
  0x5a, 0x10, 0xdc, 0xbe, 0x1a, 0x34, 0x8b, 0xbe, 0xe7, 0x62, 0xcb, 0x3d,
  0x10, 0xde, 0x32, 0x3e, 0x9f, 0xe4, 0x90, 0xbd, 0x05, 0xea, 0xd5, 0xbd,
  0xc7, 0x3c, 0x99, 0xbe, 0x89, 0xe3, 0xe6, 0x3d, 0x90, 0xbe, 0x13, 0x3e,
  0xe5, 0xdc, 0xda, 0xbd, 0x07, 0x2a, 0x99, 0x3d, 0xc5, 0xdc, 0x84, 0xbb,
  0x15, 0x73, 0x8d, 0x3e, 0xb2, 0x8e, 0xb3, 0xbe, 0x16, 0x34, 0x29, 0x3d,
  0xf4, 0x52, 0x6a, 0x3c, 0x1a, 0x4a, 0x98, 0xbc, 0x27, 0x74, 0x2f, 0xbe,
  0x14, 0xa2, 0xec, 0x3c, 0x02, 0xeb, 0x77, 0x3d, 0xd4, 0x04, 0x3f, 0xbc,
  0x63, 0x45, 0x7e, 0xbc, 0x31, 0x84, 0x0f, 0xbd, 0x17, 0xed, 0x95, 0x3e,
  0x9e, 0xb2, 0x57, 0x3d, 0xa5, 0x63, 0x8b, 0xbe, 0x37, 0x0a, 0xf9, 0x3e,
  0x44, 0x40, 0x96, 0x3e, 0xa3, 0x07, 0xad, 0x3d, 0xa6, 0x10, 0x0d, 0xbe,
  0x14, 0xb7, 0x8c, 0x3d, 0x24, 0x42, 0x7b, 0x3d, 0xa2, 0x61, 0x92, 0xbe,
  0x38, 0x38, 0x23, 0xbe, 0x36, 0x96, 0x2f, 0x3d, 0xf9, 0x4b, 0x0d, 0x3e,
  0x13, 0x8f, 0x64, 0xbe, 0xe5, 0x04, 0x42, 0x3b, 0x86, 0x51, 0x1e, 0xbe,
  0xea, 0xa9, 0x96, 0x3e, 0xbd, 0x3c, 0x89, 0xbd, 0x18, 0xce, 0xa2, 0xbd,
  0x59, 0x3b, 0xa0, 0x3d, 0x74, 0x2f, 0x8e, 0x3e, 0x55, 0xe6, 0x22, 0x3e,
  0xb2, 0xc0, 0x0e, 0xbe, 0xc2, 0x43, 0x0d, 0x3d, 0xc4, 0xca, 0x96, 0x3d,
  0x25, 0x94, 0x42, 0xbe, 0xb0, 0xbb, 0xc2, 0xbe, 0x91, 0x19, 0xd2, 0xbc,
  0x3f, 0x39, 0x19, 0x3e, 0x3e, 0xb1, 0x10, 0x3e, 0x22, 0x6c, 0xa9, 0xbd,
  0x4b, 0x13, 0xe5, 0xbe, 0xa2, 0xb9, 0x51, 0x3e, 0x6a, 0x59, 0x70, 0xbd,
  0xdd, 0xf7, 0x5f, 0xbe, 0x95, 0xfb, 0x5d, 0x3e, 0xda, 0xce, 0x12, 0x3e,
  0x1f, 0x0c, 0x95, 0x3e, 0x01, 0x2a, 0x6d, 0xbe, 0x3c, 0x90, 0xcf, 0xbd,
  0x27, 0x9d, 0xea, 0x3d, 0x56, 0x4a, 0x89, 0xbe, 0x9e, 0xc9, 0x5c, 0xbe,
  0xcc, 0x50, 0x55, 0x3d, 0x50, 0x57, 0xc2, 0x3d, 0x0c, 0x3c, 0x64, 0x3c,
  0x97, 0x8e, 0x08, 0x3e, 0xfd, 0xe1, 0xd9, 0xbe, 0xc4, 0x2d, 0x2c, 0x3d,
  0xa8, 0xb2, 0x0d, 0x3e, 0x36, 0x0b, 0x21, 0x3e, 0xa2, 0xe5, 0xf5, 0xbd,
  0x91, 0xc4, 0x2e, 0x3e, 0x49, 0xd3, 0x15, 0xbe, 0x05, 0xda, 0x77, 0xbe,
  0x6e, 0x4c, 0x2c, 0x3d, 0xa0, 0xd5, 0xe3, 0x3c, 0x74, 0xd6, 0xbe, 0xbd,
  0xaa, 0xf4, 0xb4, 0x3c, 0xac, 0x11, 0x2a, 0xbe, 0xd2, 0x03, 0x01, 0xbe,
  0xf0, 0xa6, 0x09, 0x3e, 0x27, 0xdb, 0x83, 0x3e, 0x92, 0xe8, 0xed, 0x3c,
  0x08, 0xe4, 0x7f, 0x3e, 0x66, 0x61, 0x0d, 0xbe, 0x8e, 0xd2, 0x8c, 0xbd,
  0x73, 0x51, 0xc7, 0xbe, 0x6a, 0x73, 0x58, 0x3e, 0x7a, 0x16, 0x41, 0x3e,
  0x9f, 0xbd, 0x2e, 0x3c, 0x59, 0x28, 0x6a, 0xbe, 0x4f, 0x0c, 0xb5, 0xbd,
  0xb5, 0xd3, 0x01, 0xbe, 0x90, 0x61, 0xb6, 0x3d, 0x53, 0x2f, 0x38, 0xbc,
  0xf3, 0x03, 0x43, 0xbe, 0x7a, 0x1a, 0x87, 0x3e, 0x67, 0x91, 0xf2, 0xbe,
  0xe4, 0xea, 0x8e, 0xbe, 0x72, 0x07, 0x67, 0xbe, 0x89, 0xe4, 0x74, 0x3d,
  0x07, 0x76, 0x65, 0x3e, 0xf1, 0xc3, 0xf1, 0x3b, 0x19, 0x5a, 0x59, 0xbe,
  0xc4, 0x2f, 0xfc, 0xbd, 0x25, 0x68, 0x1d, 0xbd, 0x2e, 0x76, 0x0c, 0xbe,
  0xc2, 0x39, 0x7c, 0xbb, 0x5f, 0xa3, 0xaa, 0x3c, 0x18, 0x12, 0x9a, 0xbc,
  0xce, 0xdd, 0xeb, 0xbc, 0xba, 0x0e, 0x74, 0x3d, 0x12, 0x56, 0x29, 0x3e,
  0x93, 0x61, 0xed, 0xbe, 0x53, 0xd7, 0x26, 0xbf, 0x50, 0x9e, 0xc7, 0xbe,
  0x6b, 0x22, 0x74, 0x3e, 0xef, 0xa0, 0x6a, 0xbc, 0xa4, 0x37, 0x57, 0x3e,
  0x6d, 0x86, 0x28, 0xbe, 0xd1, 0x97, 0x93, 0xbe, 0x9b, 0x39, 0xaa, 0xbe,
  0x0b, 0x22, 0x23, 0x3e, 0x81, 0xb6, 0xac, 0xbd, 0xde, 0xb2, 0x15, 0x3b,
  0x26, 0xfa, 0x29, 0xbf, 0x26, 0x79, 0xc4, 0xbb, 0xbe, 0x01, 0x19, 0x3d,
  0xed, 0x0f, 0x9d, 0xbe, 0x22, 0x0b, 0x23, 0xbe, 0x13, 0x1b, 0x8f, 0xbe,
  0x19, 0xae, 0x89, 0xbe, 0x01, 0xab, 0xbc, 0xbc, 0x69, 0x17, 0x5f, 0xbe,
  0x11, 0x81, 0xd4, 0x3d, 0xda, 0x5f, 0xb9, 0xbd, 0x50, 0xaa, 0xbf, 0xbe,
  0x93, 0xca, 0x39, 0xbf, 0x15, 0x5a, 0x99, 0x3d, 0x45, 0x3a, 0xa1, 0xbb,
  0x7e, 0xf5, 0xdc, 0xbe, 0xa4, 0xc2, 0x84, 0xbe, 0x3b, 0xef, 0x88, 0xbd,
  0x62, 0x4e, 0x8d, 0xbd, 0x9a, 0xb3, 0xfa, 0x3e, 0x7d, 0x42, 0xfb, 0x3e,
  0xc6, 0x19, 0x89, 0x3c, 0xf0, 0x79, 0x57, 0x3c, 0xef, 0x32, 0x2f, 0x3d,
  0xbb, 0xfe, 0xe2, 0xbd, 0x99, 0x27, 0x05, 0x3e, 0x94, 0xcb, 0x41, 0xbe,
  0x45, 0xfa, 0x4f, 0xbc, 0x97, 0x9d, 0x1c, 0xbd, 0x3c, 0x85, 0x67, 0x3e,
  0x1a, 0xb0, 0xde, 0xbd, 0xdd, 0xaf, 0x66, 0xbe, 0xfd, 0x9d, 0x29, 0xbd,
  0xbc, 0x23, 0x76, 0xbd, 0x72, 0xf3, 0x2c, 0xbd, 0x40, 0x46, 0x8f, 0x3e,
  0xd1, 0xe5, 0x8d, 0x3e, 0xbf, 0x44, 0x59, 0x3c, 0x0f, 0x1d, 0x76, 0x3e,
  0x70, 0x8f, 0xcf, 0xbd, 0x85, 0x4f, 0x9a, 0xbd, 0x56, 0xaa, 0x45, 0x3e,
  0xe6, 0xeb, 0x5d, 0x3e, 0x55, 0x84, 0x09, 0x3e, 0x18, 0xe5, 0x46, 0x3d,
  0x2c, 0x65, 0x03, 0x3e, 0x0c, 0x11, 0xe7, 0xbd, 0x14, 0x07, 0x25, 0xbe,
  0xfb, 0x4c, 0x4b, 0x3d, 0x88, 0xda, 0x1f, 0x3d, 0x1d, 0xb6, 0xd2, 0xbd,
  0x9e, 0x1e, 0xbc, 0x3e, 0x59, 0xf8, 0xb5, 0x3d, 0x64, 0xb8, 0xfa, 0x3d,
  0x4e, 0xd0, 0xcc, 0x3c, 0x12, 0x05, 0x84, 0x3c, 0x9f, 0xf5, 0xd0, 0xbb,
  0x67, 0x72, 0x09, 0xbe, 0x25, 0xf2, 0x9e, 0x3c, 0xd4, 0xf1, 0x48, 0x3d,
  0xc5, 0xcc, 0xd7, 0xbd, 0xce, 0x35, 0xa8, 0x3d, 0x7a, 0xd9, 0xf3, 0xbd,
  0x34, 0x0b, 0x86, 0xbc, 0x88, 0xcf, 0x00, 0xbe, 0x23, 0x28, 0x92, 0xbe,
  0x18, 0xd8, 0x0a, 0xbf, 0xf9, 0x25, 0xb3, 0x3d, 0x7e, 0x64, 0xbb, 0x3e,
  0x3f, 0x76, 0xc2, 0xbd, 0x68, 0x3a, 0x29, 0x3c, 0x55, 0x3c, 0xc7, 0xbe,
  0x87, 0xb0, 0x59, 0x3c, 0x6f, 0x46, 0x14, 0xbe, 0x74, 0x5f, 0x2b, 0x3e,
  0x54, 0x1f, 0xc5, 0x3e, 0x2c, 0x27, 0x01, 0x3f, 0x4e, 0x5a, 0x35, 0xbe,
  0xbc, 0xb7, 0xd6, 0xbc, 0xf5, 0x03, 0x6e, 0xbe, 0x2b, 0xb8, 0x66, 0xbe,
  0xfa, 0x87, 0xa7, 0xbe, 0x32, 0xa1, 0x85, 0xbe, 0xa6, 0x5c, 0x95, 0x3c,
  0x16, 0x65, 0x98, 0xbe, 0x6e, 0xe6, 0x01, 0xbe, 0x23, 0x65, 0x97, 0xbe,
  0xc8, 0x04, 0x93, 0xbe, 0x3b, 0xe7, 0x9d, 0xbd, 0x1c, 0xd0, 0xde, 0xbd,
  0x70, 0x9e, 0xd2, 0xbd, 0x5f, 0xb9, 0x1a, 0xbe, 0x73, 0x11, 0x4a, 0xbe,
  0x69, 0x3f, 0x48, 0x3d, 0xeb, 0xa5, 0xd7, 0xbb, 0xe0, 0xc1, 0x19, 0x3e,
  0x29, 0xbd, 0x69, 0xbe, 0x90, 0x45, 0x36, 0xbe, 0x2d, 0xfe, 0x71, 0xbe,
  0x10, 0x5c, 0x89, 0xbe, 0x39, 0x25, 0x13, 0xbe, 0xd1, 0xe4, 0xa5, 0xbe,
  0x9a, 0xcf, 0x8c, 0xbe, 0xac, 0xa9, 0x8f, 0x3d, 0xbe, 0x12, 0x80, 0xbe,
  0x50, 0xa6, 0x3b, 0x3d, 0xd4, 0x8b, 0x6a, 0xbe, 0xfe, 0x79, 0x7e, 0xbe,
  0x36, 0xc9, 0xc0, 0xbe, 0xf1, 0xee, 0x06, 0xbe, 0xec, 0xac, 0xfa, 0xbb,
  0xad, 0xe6, 0x9a, 0x3d, 0xd1, 0xac, 0xbc, 0xbe, 0x04, 0x3c, 0x4e, 0xbe,
  0xa8, 0x85, 0x36, 0xbe, 0xdb, 0x5e, 0x27, 0xbe, 0x18, 0xec, 0x80, 0xbe,
  0x6d, 0xa1, 0xd2, 0xbe, 0x28, 0x14, 0xe2, 0xbe, 0xe6, 0x2e, 0x9b, 0xbe,
  0x0f, 0x98, 0x7a, 0xbe, 0x6f, 0x7b, 0xae, 0x3e, 0xd5, 0xec, 0x8b, 0xbe,
  0x58, 0x37, 0x1e, 0xbe, 0x5e, 0x40, 0x00, 0xbf, 0x83, 0x16, 0x2a, 0x3e,
  0x77, 0xc9, 0x28, 0xbd, 0xca, 0xa0, 0xa2, 0xbd, 0x63, 0x92, 0x7f, 0xbe,
  0x87, 0x70, 0x1a, 0xbe, 0xd6, 0xf9, 0x82, 0xbe, 0x5c, 0x24, 0xac, 0x3e,
  0x3b, 0x81, 0x0b, 0x3e, 0x91, 0x8a, 0xff, 0x3d, 0x35, 0x58, 0x0f, 0x3d,
  0xf5, 0x80, 0xd9, 0xba, 0xb6, 0x30, 0x10, 0xbd, 0x8d, 0xe7, 0xb2, 0xbc,
  0xee, 0xcb, 0x26, 0xbe, 0xf4, 0xa6, 0x01, 0xbd, 0x12, 0x43, 0x49, 0x3b,
  0x22, 0x87, 0x57, 0x3e, 0x0a, 0x8f, 0xda, 0xbc, 0xa5, 0xbc, 0x9e, 0xbb,
  0x4b, 0x9d, 0x30, 0x3d, 0xa6, 0x1f, 0xd0, 0xbc, 0x83, 0xb1, 0x5d, 0xbe,
  0xf6, 0x8e, 0xa4, 0x3e, 0xec, 0x3f, 0x93, 0x3e, 0x50, 0x3e, 0xb0, 0x3c,
  0x75, 0x54, 0xe2, 0x3d, 0x0d, 0xc0, 0x51, 0xbd, 0xbd, 0x46, 0x47, 0x3d,
  0x33, 0x8a, 0x13, 0xbe, 0xf0, 0xc1, 0x2b, 0x3e, 0x93, 0xfc, 0xd7, 0x3d,
  0x99, 0x54, 0x1a, 0x3d, 0xef, 0x20, 0xfd, 0x3d, 0x04, 0x34, 0xc9, 0xbc,
  0xcf, 0xcb, 0x29, 0xbe, 0xed, 0xd8, 0x85, 0x3d, 0x0c, 0x38, 0x1b, 0x3e,
  0xaa, 0xc9, 0xb0, 0xbd, 0x70, 0x96, 0x81, 0x3e, 0x21, 0xf5, 0xde, 0x3d,
  0x4d, 0x66, 0x50, 0x3e, 0x02, 0x64, 0xf9, 0x3d, 0x61, 0xd7, 0xd3, 0x3d,
  0xb8, 0xb6, 0x09, 0x3e, 0xfd, 0x7d, 0xae, 0xbe, 0x80, 0xc5, 0x7b, 0x3e,
  0x39, 0x3a, 0x5f, 0xbd, 0x5a, 0x24, 0x1c, 0x3d, 0x34, 0x8a, 0xa1, 0x3e,
  0xd1, 0xf3, 0xa1, 0xbc, 0x6e, 0x46, 0xe7, 0xbc, 0xaa, 0x62, 0xa3, 0xbd,
  0x42, 0xbd, 0x44, 0xbe, 0xfb, 0x56, 0xf4, 0x3c, 0xcd, 0xfa, 0xb2, 0xbd,
  0x4e, 0x98, 0xe6, 0xbd, 0x6f, 0x1f, 0x31, 0xbc, 0xa8, 0x2f, 0xc4, 0xbb,
  0x83, 0x2a, 0xae, 0x3d, 0x80, 0x48, 0xa9, 0x3b, 0x25, 0x5c, 0x90, 0x3d,
  0xe9, 0x1a, 0xa3, 0x3d, 0x6a, 0xdf, 0x6f, 0x3b, 0x0e, 0x20, 0x3b, 0xbc,
  0x6a, 0xf3, 0xec, 0xbd, 0x9b, 0x2e, 0xf9, 0xbd, 0x89, 0x38, 0xaf, 0xbc,
  0x8f, 0x84, 0x7c, 0xbd, 0x52, 0xe0, 0x48, 0xbe, 0x2d, 0x60, 0x87, 0x3d,
  0xb9, 0x9a, 0x21, 0x3d, 0xce, 0xfd, 0x2f, 0x3c, 0x2d, 0x8b, 0x13, 0xbc,
  0x57, 0xfe, 0x78, 0xbe, 0x71, 0xfd, 0xff, 0x3d, 0xd9, 0xf3, 0x2b, 0x3e,
  0x4e, 0x75, 0xc7, 0x3d, 0x9e, 0xf3, 0x64, 0xbe, 0xea, 0x4c, 0xa1, 0x3d,
  0xc0, 0x0a, 0x7f, 0xbe, 0x9a, 0xb8, 0x97, 0xbd, 0xc2, 0x61, 0x8d, 0xbd,
  0x8f, 0xf6, 0x4e, 0xbe, 0x04, 0xa8, 0x40, 0xbe, 0x9d, 0x7a, 0x30, 0xbe,
  0x89, 0x7e, 0xee, 0xbd, 0x89, 0x99, 0x89, 0xbd, 0x81, 0x76, 0xa6, 0x3a,
  0x0b, 0xc7, 0xe0, 0x3d, 0x4a, 0x40, 0xe3, 0x3d, 0x54, 0x46, 0x64, 0x3d,
  0xc5, 0x51, 0xd6, 0x3b, 0xda, 0x82, 0xc9, 0xbd, 0x0a, 0xb6, 0x5d, 0xbe,
  0x6d, 0x47, 0x03, 0x3e, 0xa6, 0xbe, 0x4e, 0x3d, 0xd8, 0x7b, 0x0e, 0xbe,
  0xc6, 0xe0, 0x4b, 0xbe, 0xb1, 0x13, 0xe5, 0xbd, 0xfe, 0xed, 0x79, 0xbe,
  0xcf, 0xf3, 0x78, 0xbd, 0x13, 0xe9, 0x3d, 0xbe, 0x9f, 0x12, 0x0d, 0xbc,
  0x70, 0x5d, 0x1d, 0x3e, 0xd6, 0x3d, 0x43, 0xbe, 0x38, 0xd7, 0x11, 0x3e,
  0x9e, 0x47, 0x71, 0xbe, 0xc6, 0xc8, 0x9a, 0x3d, 0x4e, 0x06, 0x39, 0xbe,
  0xd6, 0x36, 0x83, 0x3d, 0x16, 0x17, 0x79, 0xbe, 0x03, 0x3e, 0xe2, 0xbc,
  0x5b, 0x1e, 0x04, 0xbe, 0x02, 0x0d, 0xa4, 0xbe, 0x6e, 0xe4, 0x2b, 0x3e,
  0x8f, 0x40, 0xd8, 0xbc, 0x7c, 0x02, 0xa5, 0xbe, 0x62, 0x59, 0x8a, 0x3d,
  0xfd, 0x84, 0xe3, 0xbd, 0xae, 0xce, 0x0f, 0xbd, 0xd0, 0x94, 0x23, 0xbd,
  0x5c, 0xfa, 0x21, 0x3d, 0x4b, 0xa2, 0xc9, 0x3d, 0xd4, 0x43, 0x28, 0xbe,
  0x7d, 0x16, 0x07, 0x3e, 0x77, 0xa9, 0xf2, 0x3d, 0xba, 0x5e, 0x41, 0xbe,
  0xd5, 0x4e, 0x06, 0xbe, 0x9d, 0x46, 0x45, 0xbe, 0x07, 0x75, 0x48, 0xbd,
  0xcb, 0xbe, 0xa7, 0x3d, 0xcf, 0x89, 0x3b, 0xbe, 0xae, 0x67, 0xff, 0xbd,
  0x13, 0x14, 0xd6, 0x3c, 0x5b, 0x91, 0xa7, 0x3d, 0xae, 0xee, 0x32, 0xbe,
  0x57, 0xe8, 0x33, 0x3d, 0xa7, 0x3c, 0x70, 0xbe, 0x20, 0xd3, 0x63, 0xbe,
  0xd7, 0x16, 0x04, 0x3c, 0x66, 0x15, 0x2a, 0x3d, 0x75, 0x07, 0x86, 0xbe,
  0x08, 0x78, 0xdc, 0x3c, 0x52, 0x77, 0xab, 0x3d, 0xf4, 0xf7, 0x44, 0xbe,
  0x79, 0xe5, 0xc4, 0xbc, 0x5b, 0x5f, 0xb8, 0x3d, 0xb7, 0x8d, 0x3c, 0xbe,
  0x5a, 0x44, 0xe2, 0xbd, 0xe6, 0x16, 0x50, 0xbe, 0x95, 0x9c, 0x97, 0xbd,
  0x02, 0x43, 0x88, 0x3c, 0xdb, 0xda, 0xe2, 0xbd, 0xe3, 0x3e, 0xf6, 0xbd,
  0x6d, 0xdb, 0x84, 0x3c, 0xf0, 0xe3, 0x7e, 0xbe, 0xe2, 0x1a, 0x40, 0xbe,
  0x03, 0xb2, 0x6c, 0xbd, 0xef, 0x84, 0x24, 0xbe, 0xda, 0x0b, 0x88, 0xbe,
  0x69, 0x91, 0x2d, 0xbe, 0xc3, 0x5c, 0x89, 0xbd, 0x94, 0xc6, 0xc6, 0xbd,
  0xc8, 0x14, 0xeb, 0xbd, 0xdd, 0xe9, 0x61, 0xbe, 0xed, 0xe2, 0x87, 0x3d,
  0x1b, 0x38, 0x41, 0xbd, 0xfa, 0x2c, 0xd5, 0xbd, 0xb6, 0xe1, 0xee, 0xbd,
  0xb5, 0xc9, 0x85, 0x3d, 0xe8, 0x3e, 0xad, 0xbe, 0xda, 0x59, 0x46, 0x3d,
  0x89, 0x79, 0x14, 0x3e, 0xec, 0x12, 0x75, 0x3e, 0xa7, 0x8e, 0x87, 0x3e,
  0xfd, 0x4c, 0x4f, 0xbe, 0x57, 0x7b, 0x79, 0x3e, 0x1a, 0xc2, 0x2e, 0xbd,
  0xe1, 0x17, 0xb2, 0xbd, 0x2e, 0xb0, 0x0a, 0xbd, 0x3f, 0x3d, 0x84, 0xbe,
  0x51, 0xaf, 0x94, 0xbe, 0x01, 0x54, 0x31, 0x3d, 0x9a, 0xee, 0x15, 0x3e,
  0x82, 0xe5, 0x5e, 0xbd, 0x66, 0xbd, 0x1f, 0x3e, 0xd4, 0x12, 0x02, 0xbf,
  0x2b, 0xf9, 0xa8, 0xbe, 0x8f, 0x9a, 0xb8, 0x3e, 0xa2, 0x5d, 0x74, 0x3e,
  0x18, 0x04, 0x2b, 0xba, 0xa1, 0x6d, 0x80, 0xbe, 0x4d, 0xbd, 0x73, 0xbe,
  0xb6, 0x92, 0x90, 0x3e, 0x34, 0xb1, 0x8f, 0xbe, 0xd5, 0x68, 0xbe, 0x3d,
  0x56, 0x17, 0xd7, 0xbd, 0x44, 0x9b, 0xa7, 0xbe, 0xe3, 0x3d, 0x15, 0xbe,
  0x1f, 0xa4, 0x39, 0x3e, 0xa2, 0x82, 0x19, 0x3d, 0xae, 0x4e, 0x07, 0xbe,
  0x81, 0xa2, 0x32, 0xbe, 0x7b, 0x9d, 0x39, 0xbe, 0xca, 0x76, 0x2c, 0x3e,
  0x5e, 0x5e, 0x84, 0x3e, 0x83, 0xb2, 0xb8, 0xbc, 0xfa, 0xf5, 0x17, 0xbc,
  0x2f, 0x6e, 0xa9, 0x3c, 0xf7, 0x48, 0x69, 0x3b, 0xe3, 0xee, 0x3f, 0x3e,
  0x07, 0xcb, 0x92, 0xbe, 0x6d, 0x3f, 0xae, 0x3d, 0x5c, 0x5f, 0x1b, 0x3e,
  0xee, 0x7d, 0x9e, 0x3b, 0xf8, 0x45, 0x53, 0xbd, 0x16, 0x9c, 0x78, 0x3d,
  0xe2, 0x80, 0xd6, 0xbc, 0x6e, 0xec, 0xb6, 0xbd, 0xfb, 0x2b, 0xdf, 0x3c,
  0x9b, 0xcc, 0xeb, 0x3e, 0x33, 0x89, 0xa3, 0x3e, 0x2d, 0x6a, 0x03, 0x3c,
  0x57, 0x1c, 0xb3, 0xbc, 0x80, 0x33, 0x27, 0xbe, 0x5f, 0x96, 0x07, 0x3c,
  0x1c, 0xff, 0x51, 0xbb, 0x53, 0x44, 0xc7, 0xbd, 0xa2, 0x54, 0xb7, 0xbd,
  0x8e, 0xc8, 0xbb, 0xbd, 0x42, 0x89, 0xf2, 0xbd, 0x04, 0xaf, 0x8e, 0x3e,
  0xb7, 0xad, 0x2d, 0xbe, 0x46, 0x79, 0x3c, 0x3e, 0x64, 0x7a, 0x0d, 0xbf,
  0x60, 0xf5, 0x2a, 0xbe, 0xd9, 0x9e, 0x0b, 0x3e, 0x97, 0x5f, 0x28, 0x3e,
  0x27, 0xc1, 0xa1, 0x3d, 0x70, 0x4a, 0x25, 0xbe, 0x5c, 0x1a, 0x4c, 0x3d,
  0x48, 0x85, 0xae, 0xbd, 0x2a, 0xc9, 0x00, 0xbe, 0x9f, 0xc1, 0xbc, 0xbd,
  0xd7, 0x7a, 0x2c, 0xbd, 0x57, 0xed, 0xb1, 0xbd, 0x50, 0x6c, 0x08, 0x3d,
  0xda, 0x0d, 0x9e, 0xbd, 0x95, 0x69, 0x12, 0xbe, 0x71, 0x82, 0x14, 0x3e,
  0x70, 0xf5, 0x18, 0xbe, 0x59, 0x30, 0x91, 0xbd, 0x8a, 0x00, 0x66, 0x3e,
  0x7d, 0x20, 0x7b, 0x3e, 0xcc, 0x80, 0xaa, 0xbc, 0x38, 0xbd, 0x15, 0xbd,
  0x25, 0x88, 0xa8, 0xbd, 0x06, 0x2b, 0x45, 0x3e, 0x14, 0x42, 0xc4, 0xbd,
  0xe2, 0x74, 0xc8, 0xbd, 0xa1, 0x59, 0xef, 0xbd, 0x43, 0x89, 0x39, 0xbd,
  0xa0, 0xa0, 0x47, 0xbd, 0xff, 0x08, 0xc1, 0x3d, 0x8d, 0xe3, 0xba, 0xbe,
  0x34, 0x17, 0x15, 0xbe, 0x43, 0x2c, 0x48, 0xbe, 0xf1, 0xeb, 0x65, 0xbb,
  0xd3, 0xa1, 0xcf, 0xbc, 0x66, 0x4a, 0x0c, 0x3e, 0xf4, 0x87, 0x75, 0xbd,
  0x80, 0x06, 0x8a, 0xbd, 0x27, 0x81, 0x69, 0x3e, 0x12, 0xc6, 0x1e, 0xbe,
  0xcf, 0xb5, 0x0a, 0xbe, 0xca, 0xb8, 0x82, 0x3d, 0x63, 0x9b, 0x20, 0x3d,
  0x7e, 0xbf, 0xce, 0x3d, 0x56, 0x87, 0xee, 0xbe, 0x76, 0x9a, 0xff, 0xbe,
  0xf0, 0x94, 0xd9, 0xbd, 0x21, 0x34, 0x02, 0xbf, 0xd3, 0x97, 0x65, 0x3e,
  0xbb, 0x95, 0x32, 0xbd, 0x6e, 0x53, 0x63, 0x3d, 0x39, 0xf2, 0xbd, 0xbe,
  0x6c, 0xb0, 0x04, 0xbf, 0x94, 0x56, 0xc0, 0x3d, 0xa3, 0xcf, 0x22, 0xbe,
  0x12, 0x9b, 0xa4, 0xbe, 0x23, 0x47, 0x58, 0x3e, 0xb7, 0x30, 0x7b, 0x3d,
  0x5d, 0x4d, 0x2a, 0xbd, 0x83, 0x4f, 0x0e, 0x3b, 0x4a, 0x1c, 0x11, 0x3d,
  0x01, 0xa9, 0xcc, 0x3e, 0x99, 0xd1, 0x81, 0x3e, 0x3f, 0x30, 0x62, 0xbe,
  0x72, 0xd3, 0x89, 0xbd, 0x6f, 0xa9, 0xc2, 0xbd, 0x50, 0xcd, 0x46, 0x3e,
  0x4e, 0x7e, 0x57, 0xbe, 0xf9, 0x06, 0x09, 0xbf, 0x93, 0x5a, 0x1b, 0x3e,
  0x0e, 0x1d, 0x48, 0x3e, 0x91, 0xcf, 0x36, 0xbe, 0x7a, 0x97, 0x98, 0x3d,
  0x19, 0x6f, 0x0f, 0x3b, 0x3c, 0x9c, 0x44, 0xbd, 0x06, 0x38, 0x48, 0xbe,
  0x74, 0xcf, 0x12, 0x3d, 0x5e, 0x22, 0x27, 0x3f, 0x69, 0x36, 0x23, 0x3f,
  0x95, 0x08, 0x11, 0xbd, 0x9d, 0x87, 0x85, 0xbd, 0x76, 0x41, 0x37, 0x3d,
  0x33, 0x6e, 0x53, 0x3d, 0xef, 0x14, 0x9a, 0xbd, 0xe4, 0x78, 0x88, 0xbe,
  0x87, 0x3d, 0x99, 0x3e, 0x7a, 0xf7, 0xaa, 0xbc, 0x60, 0xa1, 0x61, 0x3c,
  0x89, 0xbb, 0x31, 0x3e, 0x1f, 0xe5, 0xde, 0x3d, 0x12, 0x65, 0xaf, 0xbc,
  0xbd, 0xe2, 0x36, 0xbe, 0xbd, 0xcd, 0x42, 0xbc, 0x46, 0xa6, 0x5d, 0x3e,
  0x51, 0x22, 0x8a, 0x3e, 0x3c, 0x71, 0x6f, 0xbe, 0x27, 0x85, 0xd6, 0x3d,
  0x31, 0xba, 0x90, 0x3d, 0x9a, 0x40, 0x9a, 0x3e, 0x5f, 0x2f, 0xa1, 0xbd,
  0xae, 0xdf, 0x05, 0xbf, 0xf5, 0x30, 0x65, 0x3e, 0x30, 0x3a, 0xca, 0xbd,
  0xc1, 0x2c, 0x7d, 0x3d, 0xe4, 0xea, 0xe1, 0x3e, 0x3c, 0x6e, 0x23, 0x3e,
  0x40, 0xe8, 0x14, 0x3d, 0x6f, 0x6c, 0x8e, 0xbd, 0x0b, 0x0e, 0x02, 0xbf,
  0x81, 0x10, 0xa9, 0xbe, 0x02, 0xc7, 0x3a, 0x3e, 0xe8, 0x62, 0x14, 0xbf,
  0xf7, 0xe7, 0x92, 0xbe, 0x46, 0xf7, 0xd7, 0x3d, 0xbf, 0x3e, 0xd0, 0xbd,
  0x0d, 0x10, 0x0d, 0xbe, 0x3e, 0x07, 0x40, 0xbf, 0x68, 0x63, 0x98, 0xbd,
  0x61, 0xa6, 0x83, 0xbe, 0x75, 0xaa, 0xe2, 0x3b, 0xfb, 0x38, 0x07, 0x3f,
  0x3e, 0x38, 0x84, 0x3d, 0x30, 0x04, 0x09, 0xbc, 0xf0, 0x7f, 0x93, 0xbd,
  0xc1, 0xc1, 0xfa, 0xbe, 0x81, 0x9c, 0x70, 0xbe, 0xe0, 0xc8, 0xc4, 0x3d,
  0xde, 0xf4, 0x06, 0xbf, 0x8c, 0xee, 0x3f, 0x3c, 0xa1, 0xee, 0x66, 0x3d,
  0x40, 0xac, 0xe6, 0x3d, 0x9c, 0x85, 0xd4, 0xbe, 0x59, 0xb8, 0x19, 0xbf,
  0xb8, 0xc7, 0x99, 0xbd, 0x58, 0x70, 0x08, 0xbd, 0x5a, 0x80, 0xa2, 0x3b,
  0x48, 0x2d, 0x01, 0x3f, 0x54, 0xa0, 0xdb, 0x3c, 0xbe, 0x48, 0x44, 0xbd,
  0x77, 0x7e, 0x89, 0x3d, 0x28, 0x83, 0xaa, 0xbd, 0x84, 0x9e, 0x2f, 0xbe,
  0x7a, 0x88, 0xca, 0x3c, 0x0d, 0x0a, 0xba, 0xbe, 0x38, 0x64, 0x0e, 0x3c,
  0xed, 0xdd, 0xdd, 0xbd, 0x39, 0x49, 0x1b, 0x3d, 0xba, 0x10, 0xa7, 0xbd,
  0x00, 0x8f, 0xa3, 0xbe, 0x0a, 0x36, 0xd9, 0x3d, 0xc5, 0x8e, 0x5a, 0xbe,
  0x4e, 0x8c, 0x99, 0xbc, 0xe4, 0x98, 0x2f, 0x3d, 0x4a, 0xfe, 0xff, 0xff,
  0x10, 0x00, 0x00, 0x00, 0x05, 0x00, 0x00, 0x00, 0x14, 0x00, 0x00, 0x00,
  0x2c, 0x00, 0x00, 0x00, 0x02, 0x00, 0x00, 0x00, 0x10, 0x00, 0x00, 0x00,
  0x70, 0x00, 0x00, 0x00, 0x17, 0x00, 0x00, 0x00, 0x73, 0x65, 0x71, 0x75,
  0x65, 0x6e, 0x74, 0x69, 0x61, 0x6c, 0x2f, 0x64, 0x65, 0x6e, 0x73, 0x65,
  0x2f, 0x4d, 0x61, 0x74, 0x4d, 0x75, 0x6c, 0x00, 0x38, 0xfe, 0xff, 0xff,
  0x2e, 0xff, 0xff, 0xff, 0x04, 0x00, 0x00, 0x00, 0x08, 0x00, 0x00, 0x00,
  0xff, 0xff, 0xff, 0xff, 0x70, 0x00, 0x00, 0x00, 0x00, 0x00, 0x0e, 0x00,
  0x18, 0x00, 0x08, 0x00, 0x07, 0x00, 0x0c, 0x00, 0x10, 0x00, 0x14, 0x00,
  0x0e, 0x00, 0x00, 0x00, 0x00, 0x00, 0x00, 0x02, 0x10, 0x00, 0x00, 0x00,
  0x04, 0x00, 0x00, 0x00, 0x10, 0x00, 0x00, 0x00, 0x2c, 0x00, 0x00, 0x00,
  0x01, 0x00, 0x00, 0x00, 0x02, 0x00, 0x00, 0x00, 0x18, 0x00, 0x00, 0x00,
  0x73, 0x65, 0x71, 0x75, 0x65, 0x6e, 0x74, 0x69, 0x61, 0x6c, 0x2f, 0x66,
  0x6c, 0x61, 0x74, 0x74, 0x65, 0x6e, 0x2f, 0x43, 0x6f, 0x6e, 0x73, 0x74,
  0x00, 0x00, 0x00, 0x00, 0xa0, 0xfe, 0xff, 0xff, 0x96, 0xff, 0xff, 0xff,
  0x04, 0x00, 0x00, 0x00, 0x0c, 0x00, 0x00, 0x00, 0xab, 0x77, 0xe2, 0x3f,
  0x23, 0xb8, 0xd7, 0xbf, 0x69, 0xcc, 0x82, 0xbf, 0x0a, 0xff, 0xff, 0xff,
  0x10, 0x00, 0x00, 0x00, 0x03, 0x00, 0x00, 0x00, 0x10, 0x00, 0x00, 0x00,
  0x3c, 0x00, 0x00, 0x00, 0x01, 0x00, 0x00, 0x00, 0x03, 0x00, 0x00, 0x00,
  0x29, 0x00, 0x00, 0x00, 0x73, 0x65, 0x71, 0x75, 0x65, 0x6e, 0x74, 0x69,
  0x61, 0x6c, 0x2f, 0x64, 0x65, 0x6e, 0x73, 0x65, 0x5f, 0x31, 0x2f, 0x42,
  0x69, 0x61, 0x73, 0x41, 0x64, 0x64, 0x2f, 0x52, 0x65, 0x61, 0x64, 0x56,
  0x61, 0x72, 0x69, 0x61, 0x62, 0x6c, 0x65, 0x4f, 0x70, 0x00, 0x00, 0x00,
  0x60, 0xff, 0xff, 0xff, 0x00, 0x00, 0x06, 0x00, 0x08, 0x00, 0x04, 0x00,
  0x06, 0x00, 0x00, 0x00, 0x04, 0x00, 0x00, 0x00, 0x40, 0x00, 0x00, 0x00,
  0x2b, 0xd4, 0x03, 0x3e, 0x06, 0x7f, 0x81, 0xbf, 0xc9, 0xe6, 0x46, 0x40,
  0xc6, 0xc9, 0x50, 0x3f, 0xde, 0x84, 0x64, 0xbe, 0xb6, 0x85, 0x1f, 0x40,
  0x12, 0x6c, 0x32, 0x40, 0xba, 0xf4, 0xce, 0xbe, 0xf7, 0x17, 0x65, 0xbe,
  0x54, 0x1f, 0x70, 0xbe, 0x41, 0x6a, 0x0b, 0x40, 0x13, 0xc1, 0x9f, 0xbf,
  0xd8, 0x28, 0x10, 0xbf, 0x7b, 0x2b, 0x8f, 0xbe, 0xe1, 0x38, 0x51, 0xbd,
  0x04, 0xee, 0x99, 0xbf, 0xae, 0xff, 0xff, 0xff, 0x10, 0x00, 0x00, 0x00,
  0x02, 0x00, 0x00, 0x00, 0x10, 0x00, 0x00, 0x00, 0x3c, 0x00, 0x00, 0x00,
  0x01, 0x00, 0x00, 0x00, 0x10, 0x00, 0x00, 0x00, 0x27, 0x00, 0x00, 0x00,
  0x73, 0x65, 0x71, 0x75, 0x65, 0x6e, 0x74, 0x69, 0x61, 0x6c, 0x2f, 0x64,
  0x65, 0x6e, 0x73, 0x65, 0x2f, 0x42, 0x69, 0x61, 0x73, 0x41, 0x64, 0x64,
  0x2f, 0x52, 0x65, 0x61, 0x64, 0x56, 0x61, 0x72, 0x69, 0x61, 0x62, 0x6c,
  0x65, 0x4f, 0x70, 0x00, 0x04, 0x00, 0x06, 0x00, 0x04, 0x00, 0x00, 0x00,
  0x00, 0x00, 0x0e, 0x00, 0x14, 0x00, 0x04, 0x00, 0x00, 0x00, 0x08, 0x00,
  0x0c, 0x00, 0x10, 0x00, 0x0e, 0x00, 0x00, 0x00, 0x10, 0x00, 0x00, 0x00,
  0x01, 0x00, 0x00, 0x00, 0x1c, 0x00, 0x00, 0x00, 0x2c, 0x00, 0x00, 0x00,
  0x04, 0x00, 0x00, 0x00, 0x01, 0x00, 0x00, 0x00, 0x40, 0x00, 0x00, 0x00,
  0x03, 0x00, 0x00, 0x00, 0x01, 0x00, 0x00, 0x00, 0x0c, 0x00, 0x00, 0x00,
  0x63, 0x6f, 0x6e, 0x76, 0x32, 0x64, 0x5f, 0x69, 0x6e, 0x70, 0x75, 0x74,
  0x00, 0x00, 0x00, 0x00, 0xfc, 0xff, 0xff, 0xff, 0x04, 0x00, 0x04, 0x00,
  0x04, 0x00, 0x00, 0x00
};

unsigned int model_tflite_len = 12316;// Fill the int in `src/model.cc` here